{
  "version": "1.0",
  "truncation": null,
  "padding": null,
  "added_tokens": [
    {
      "id": 0,
      "content": "[PAD]",
      "single_word": false,
      "lstrip": false,
      "rstrip": false,
      "normalized": false,
      "special": true
    },
    {
      "id": 1,
      "content": "[UNK]",
      "single_word": false,
      "lstrip": false,
      "rstrip": false,
      "normalized": false,
      "special": true
    },
    {
      "id": 2,
      "content": "[BOS]",
      "single_word": false,
      "lstrip": false,
      "rstrip": false,
      "normalized": false,
      "special": true
    },
    {
      "id": 3,
      "content": "[EOS]",
      "single_word": false,
      "lstrip": false,
      "rstrip": false,
      "normalized": false,
      "special": true
    },
    {
      "id": 4,
      "content": "[CLS]",
      "single_word": false,
      "lstrip": false,
      "rstrip": false,
      "normalized": false,
      "special": true
    },
    {
      "id": 5,
      "content": "[SEP]",
      "single_word": false,
      "lstrip": false,
      "rstrip": false,
      "normalized": false,
      "special": true
    },
    {
      "id": 6,
      "content": "[MASK]",
      "single_word": false,
      "lstrip": false,
      "rstrip": false,
      "normalized": false,
      "special": true
    }
  ],
  "normalizer": null,
  "pre_tokenizer": {
    "type": "Whitespace"
  },
  "post_processor": null,
  "decoder": {
    "type": "ByteLevel",
    "add_prefix_space": true,
    "trim_offsets": true,
    "use_regex": true
  },
  "model": {
    "type": "BPE",
    "dropout": null,
    "unk_token": null,
    "continuing_subword_prefix": "##",
    "end_of_word_suffix": null,
    "fuse_unk": false,
    "byte_fallback": false,
    "ignore_merges": false,
    "vocab": {
      "[PAD]": 0,
      "[UNK]": 1,
      "[BOS]": 2,
      "[EOS]": 3,
      "[CLS]": 4,
      "[SEP]": 5,
      "[MASK]": 6,
      "!": 7,
      "\"": 8,
      "$": 9,
      "%": 10,
      "&": 11,
      "'": 12,
      "(": 13,
      ")": 14,
      ",": 15,
      "-": 16,
      ".": 17,
      "/": 18,
      "0": 19,
      "1": 20,
      "2": 21,
      "3": 22,
      "4": 23,
      "5": 24,
      "6": 25,
      "7": 26,
      "8": 27,
      "9": 28,
      ":": 29,
      ";": 30,
      "?": 31,
      "A": 32,
      "B": 33,
      "C": 34,
      "D": 35,
      "E": 36,
      "F": 37,
      "G": 38,
      "H": 39,
      "I": 40,
      "J": 41,
      "K": 42,
      "L": 43,
      "M": 44,
      "N": 45,
      "O": 46,
      "P": 47,
      "Q": 48,
      "R": 49,
      "S": 50,
      "T": 51,
      "U": 52,
      "V": 53,
      "W": 54,
      "X": 55,
      "Y": 56,
      "Z": 57,
      "_": 58,
      "a": 59,
      "b": 60,
      "c": 61,
      "d": 62,
      "e": 63,
      "f": 64,
      "g": 65,
      "h": 66,
      "i": 67,
      "j": 68,
      "k": 69,
      "l": 70,
      "m": 71,
      "n": 72,
      "o": 73,
      "p": 74,
      "q": 75,
      "r": 76,
      "s": 77,
      "t": 78,
      "u": 79,
      "v": 80,
      "w": 81,
      "x": 82,
      "y": 83,
      "z": 84,
      "ª": 85,
      "²": 86,
      "³": 87,
      "µ": 88,
      "¹": 89,
      "º": 90,
      "¼": 91,
      "½": 92,
      "¾": 93,
      "À": 94,
      "Á": 95,
      "Â": 96,
      "Ã": 97,
      "Ä": 98,
      "Å": 99,
      "Æ": 100,
      "Ç": 101,
      "È": 102,
      "É": 103,
      "Ê": 104,
      "Ë": 105,
      "Ì": 106,
      "Í": 107,
      "Î": 108,
      "Ï": 109,
      "Ð": 110,
      "Ñ": 111,
      "Ò": 112,
      "Ó": 113,
      "Ô": 114,
      "Õ": 115,
      "Ö": 116,
      "Ø": 117,
      "Ù": 118,
      "Ú": 119,
      "Û": 120,
      "Ü": 121,
      "Ý": 122,
      "Þ": 123,
      "ß": 124,
      "à": 125,
      "á": 126,
      "â": 127,
      "ã": 128,
      "ä": 129,
      "å": 130,
      "æ": 131,
      "ç": 132,
      "è": 133,
      "é": 134,
      "ê": 135,
      "ë": 136,
      "ì": 137,
      "í": 138,
      "î": 139,
      "ï": 140,
      "ð": 141,
      "ñ": 142,
      "ò": 143,
      "ó": 144,
      "ô": 145,
      "õ": 146,
      "ö": 147,
      "ø": 148,
      "ù": 149,
      "ú": 150,
      "û": 151,
      "ü": 152,
      "ý": 153,
      "þ": 154,
      "ÿ": 155,
      "Ā": 156,
      "ā": 157,
      "Ă": 158,
      "ă": 159,
      "Ą": 160,
      "ą": 161,
      "Ć": 162,
      "ć": 163,
      "Ĉ": 164,
      "ĉ": 165,
      "Ċ": 166,
      "ċ": 167,
      "Č": 168,
      "č": 169,
      "Ď": 170,
      "ď": 171,
      "Đ": 172,
      "đ": 173,
      "Ē": 174,
      "ē": 175,
      "Ĕ": 176,
      "ĕ": 177,
      "Ė": 178,
      "ė": 179,
      "Ę": 180,
      "ę": 181,
      "Ě": 182,
      "ě": 183,
      "Ĝ": 184,
      "ĝ": 185,
      "Ğ": 186,
      "ğ": 187,
      "Ġ": 188,
      "ġ": 189,
      "Ģ": 190,
      "ģ": 191,
      "Ĥ": 192,
      "ĥ": 193,
      "Ħ": 194,
      "ħ": 195,
      "ĩ": 196,
      "Ī": 197,
      "ī": 198,
      "ĭ": 199,
      "į": 200,
      "İ": 201,
      "ı": 202,
      "Ĳ": 203,
      "ĳ": 204,
      "Ĵ": 205,
      "ĵ": 206,
      "Ķ": 207,
      "ķ": 208,
      "Ĺ": 209,
      "ĺ": 210,
      "Ļ": 211,
      "ļ": 212,
      "Ľ": 213,
      "ľ": 214,
      "Ł": 215,
      "ł": 216,
      "Ń": 217,
      "ń": 218,
      "Ņ": 219,
      "ņ": 220,
      "ň": 221,
      "ŋ": 222,
      "Ō": 223,
      "ō": 224,
      "ŏ": 225,
      "Ő": 226,
      "ő": 227,
      "Œ": 228,
      "œ": 229,
      "Ŕ": 230,
      "Ŗ": 231,
      "ŗ": 232,
      "Ř": 233,
      "ř": 234,
      "Ś": 235,
      "ś": 236,
      "Ŝ": 237,
      "ŝ": 238,
      "Ş": 239,
      "ş": 240,
      "Š": 241,
      "š": 242,
      "Ţ": 243,
      "ţ": 244,
      "Ť": 245,
      "ť": 246,
      "ŧ": 247,
      "ũ": 248,
      "Ū": 249,
      "ū": 250,
      "Ŭ": 251,
      "ŭ": 252,
      "Ů": 253,
      "ů": 254,
      "Ű": 255,
      "ű": 256,
      "ų": 257,
      "Ŵ": 258,
      "ŵ": 259,
      "Ŷ": 260,
      "ŷ": 261,
      "Ÿ": 262,
      "Ź": 263,
      "ź": 264,
      "Ż": 265,
      "ż": 266,
      "Ž": 267,
      "ž": 268,
      "ſ": 269,
      "ƀ": 270,
      "Ɔ": 271,
      "Ɖ": 272,
      "Ə": 273,
      "Ɛ": 274,
      "Ƒ": 275,
      "ƒ": 276,
      "Ơ": 277,
      "ơ": 278,
      "ƨ": 279,
      "Ư": 280,
      "ư": 281,
      "ǀ": 282,
      "ǁ": 283,
      "ǂ": 284,
      "ǃ": 285,
      "ǎ": 286,
      "ǐ": 287,
      "ǒ": 288,
      "ǔ": 289,
      "ǚ": 290,
      "ǝ": 291,
      "Ǟ": 292,
      "ǣ": 293,
      "Ǧ": 294,
      "ǧ": 295,
      "Ǫ": 296,
      "ǫ": 297,
      "ǵ": 298,
      "Ƿ": 299,
      "ǽ": 300,
      "Ǿ": 301,
      "ȉ": 302,
      "Ș": 303,
      "ș": 304,
      "Ț": 305,
      "ț": 306,
      "ȝ": 307,
      "ȟ": 308,
      "Ȣ": 309,
      "Ȫ": 310,
      "Ȭ": 311,
      "Ȯ": 312,
      "Ȱ": 313,
      "Ȳ": 314,
      "ȳ": 315,
      "ȷ": 316,
      "ɐ": 317,
      "ɑ": 318,
      "ɒ": 319,
      "ɓ": 320,
      "ɔ": 321,
      "ɕ": 322,
      "ɗ": 323,
      "ə": 324,
      "ɚ": 325,
      "ɛ": 326,
      "ɜ": 327,
      "ɞ": 328,
      "ɟ": 329,
      "ɡ": 330,
      "ɣ": 331,
      "ɤ": 332,
      "ɦ": 333,
      "ɨ": 334,
      "ɪ": 335,
      "ɫ": 336,
      "ɬ": 337,
      "ɱ": 338,
      "ɲ": 339,
      "ɴ": 340,
      "ɶ": 341,
      "ɸ": 342,
      "ɹ": 343,
      "ɻ": 344,
      "ɾ": 345,
      "ʀ": 346,
      "ʁ": 347,
      "ʂ": 348,
      "ʃ": 349,
      "ʈ": 350,
      "ʊ": 351,
      "ʋ": 352,
      "ʌ": 353,
      "ʎ": 354,
      "ʏ": 355,
      "ʑ": 356,
      "ʒ": 357,
      "ʔ": 358,
      "ʘ": 359,
      "ʦ": 360,
      "ʧ": 361,
      "ʰ": 362,
      "ʲ": 363,
      "ʷ": 364,
      "ʹ": 365,
      "ʺ": 366,
      "ʻ": 367,
      "ʼ": 368,
      "ʽ": 369,
      "ʾ": 370,
      "ʿ": 371,
      "ˀ": 372,
      "ˁ": 373,
      "ˇ": 374,
      "ˈ": 375,
      "ˌ": 376,
      "ː": 377,
      "ˑ": 378,
      "ˢ": 379,
      "ˤ": 380,
      "ˮ": 381,
      "Ά": 382,
      "Έ": 383,
      "Ή": 384,
      "Ί": 385,
      "Ό": 386,
      "Ύ": 387,
      "Ώ": 388,
      "ΐ": 389,
      "Α": 390,
      "Β": 391,
      "Γ": 392,
      "Δ": 393,
      "Ε": 394,
      "Ζ": 395,
      "Η": 396,
      "Θ": 397,
      "Ι": 398,
      "Κ": 399,
      "Λ": 400,
      "Μ": 401,
      "Ν": 402,
      "Ξ": 403,
      "Ο": 404,
      "Π": 405,
      "Ρ": 406,
      "Σ": 407,
      "Τ": 408,
      "Υ": 409,
      "Φ": 410,
      "Χ": 411,
      "Ψ": 412,
      "Ω": 413,
      "ά": 414,
      "έ": 415,
      "ή": 416,
      "ί": 417,
      "α": 418,
      "β": 419,
      "γ": 420,
      "δ": 421,
      "ε": 422,
      "ζ": 423,
      "η": 424,
      "θ": 425,
      "ι": 426,
      "κ": 427,
      "λ": 428,
      "μ": 429,
      "ν": 430,
      "ξ": 431,
      "ο": 432,
      "π": 433,
      "ρ": 434,
      "ς": 435,
      "σ": 436,
      "τ": 437,
      "υ": 438,
      "φ": 439,
      "χ": 440,
      "ψ": 441,
      "ω": 442,
      "ϊ": 443,
      "ϋ": 444,
      "ό": 445,
      "ύ": 446,
      "ώ": 447,
      "ϕ": 448,
      "Ϙ": 449,
      "ϙ": 450,
      "Ϛ": 451,
      "ϛ": 452,
      "Ϝ": 453,
      "ϝ": 454,
      "Ϡ": 455,
      "ϡ": 456,
      "Ϣ": 457,
      "ϣ": 458,
      "Ϥ": 459,
      "ϥ": 460,
      "Ϧ": 461,
      "ϧ": 462,
      "Ϩ": 463,
      "ϩ": 464,
      "Ϫ": 465,
      "ϫ": 466,
      "Ϭ": 467,
      "ϭ": 468,
      "Ϯ": 469,
      "ϯ": 470,
      "ϲ": 471,
      "Ϲ": 472,
      "Ё": 473,
      "Ђ": 474,
      "Ѓ": 475,
      "Є": 476,
      "І": 477,
      "Ј": 478,
      "Љ": 479,
      "Њ": 480,
      "Ћ": 481,
      "Џ": 482,
      "А": 483,
      "Б": 484,
      "В": 485,
      "Г": 486,
      "Д": 487,
      "Е": 488,
      "Ж": 489,
      "З": 490,
      "И": 491,
      "Й": 492,
      "К": 493,
      "Л": 494,
      "М": 495,
      "Н": 496,
      "О": 497,
      "П": 498,
      "Р": 499,
      "С": 500,
      "Т": 501,
      "У": 502,
      "Ф": 503,
      "Х": 504,
      "Ц": 505,
      "Ч": 506,
      "Ш": 507,
      "Щ": 508,
      "Ъ": 509,
      "Ы": 510,
      "Ь": 511,
      "Э": 512,
      "Ю": 513,
      "Я": 514,
      "а": 515,
      "б": 516,
      "в": 517,
      "г": 518,
      "д": 519,
      "е": 520,
      "ж": 521,
      "з": 522,
      "и": 523,
      "й": 524,
      "к": 525,
      "л": 526,
      "м": 527,
      "н": 528,
      "о": 529,
      "п": 530,
      "р": 531,
      "с": 532,
      "т": 533,
      "у": 534,
      "ф": 535,
      "х": 536,
      "ц": 537,
      "ч": 538,
      "ш": 539,
      "щ": 540,
      "ъ": 541,
      "ы": 542,
      "ь": 543,
      "э": 544,
      "ю": 545,
      "я": 546,
      "ѐ": 547,
      "ё": 548,
      "ђ": 549,
      "ѓ": 550,
      "є": 551,
      "ѕ": 552,
      "і": 553,
      "ї": 554,
      "ј": 555,
      "љ": 556,
      "њ": 557,
      "ћ": 558,
      "ќ": 559,
      "ў": 560,
      "џ": 561,
      "Ѣ": 562,
      "ѣ": 563,
      "ѧ": 564,
      "ѩ": 565,
      "ѹ": 566,
      "Ҍ": 567,
      "ҍ": 568,
      "Ҏ": 569,
      "ҏ": 570,
      "ґ": 571,
      "ғ": 572,
      "ҕ": 573,
      "Қ": 574,
      "қ": 575,
      "ҡ": 576,
      "ң": 577,
      "ҧ": 578,
      "ҫ": 579,
      "ҭ": 580,
      "Ү": 581,
      "ү": 582,
      "ұ": 583,
      "Ҳ": 584,
      "ҳ": 585,
      "Ҷ": 586,
      "ҷ": 587,
      "ҹ": 588,
      "Һ": 589,
      "һ": 590,
      "Ӏ": 591,
      "Ӆ": 592,
      "ӆ": 593,
      "Ӈ": 594,
      "ӈ": 595,
      "Ӊ": 596,
      "ӊ": 597,
      "Ӎ": 598,
      "ӎ": 599,
      "ӏ": 600,
      "ӑ": 601,
      "Ӓ": 602,
      "ӓ": 603,
      "ӕ": 604,
      "Ә": 605,
      "ә": 606,
      "Ӣ": 607,
      "ӣ": 608,
      "ӧ": 609,
      "ө": 610,
      "Ӭ": 611,
      "ӭ": 612,
      "ӯ": 613,
      "ӷ": 614,
      "ԥ": 615,
      "Ա": 616,
      "Գ": 617,
      "Ե": 618,
      "Թ": 619,
      "Լ": 620,
      "Հ": 621,
      "Մ": 622,
      "Ն": 623,
      "Շ": 624,
      "Ո": 625,
      "Չ": 626,
      "Պ": 627,
      "Ռ": 628,
      "Ս": 629,
      "Վ": 630,
      "Տ": 631,
      "Ք": 632,
      "Ֆ": 633,
      "ա": 634,
      "բ": 635,
      "գ": 636,
      "դ": 637,
      "ե": 638,
      "զ": 639,
      "է": 640,
      "թ": 641,
      "ի": 642,
      "լ": 643,
      "խ": 644,
      "ծ": 645,
      "կ": 646,
      "հ": 647,
      "ղ": 648,
      "ճ": 649,
      "մ": 650,
      "յ": 651,
      "ն": 652,
      "շ": 653,
      "ո": 654,
      "չ": 655,
      "պ": 656,
      "ռ": 657,
      "ս": 658,
      "վ": 659,
      "տ": 660,
      "ր": 661,
      "ց": 662,
      "ւ": 663,
      "փ": 664,
      "ք": 665,
      "օ": 666,
      "ֆ": 667,
      "և": 668,
      "א": 669,
      "ב": 670,
      "ג": 671,
      "ד": 672,
      "ה": 673,
      "ו": 674,
      "ז": 675,
      "ח": 676,
      "ט": 677,
      "י": 678,
      "ך": 679,
      "כ": 680,
      "ל": 681,
      "ם": 682,
      "מ": 683,
      "ן": 684,
      "נ": 685,
      "ס": 686,
      "ע": 687,
      "ף": 688,
      "פ": 689,
      "ץ": 690,
      "צ": 691,
      "ק": 692,
      "ר": 693,
      "ש": 694,
      "ת": 695,
      "װ": 696,
      "ױ": 697,
      "ײ": 698,
      "ء": 699,
      "آ": 700,
      "أ": 701,
      "ؤ": 702,
      "إ": 703,
      "ئ": 704,
      "ا": 705,
      "ب": 706,
      "ة": 707,
      "ت": 708,
      "ث": 709,
      "ج": 710,
      "ح": 711,
      "خ": 712,
      "د": 713,
      "ذ": 714,
      "ر": 715,
      "ز": 716,
      "س": 717,
      "ش": 718,
      "ص": 719,
      "ض": 720,
      "ط": 721,
      "ظ": 722,
      "ع": 723,
      "غ": 724,
      "ـ": 725,
      "ف": 726,
      "ق": 727,
      "ك": 728,
      "ل": 729,
      "م": 730,
      "ن": 731,
      "ه": 732,
      "و": 733,
      "ى": 734,
      "ي": 735,
      "٠": 736,
      "١": 737,
      "٢": 738,
      "٣": 739,
      "٤": 740,
      "٥": 741,
      "٦": 742,
      "٧": 743,
      "٨": 744,
      "٩": 745,
      "ٱ": 746,
      "ٹ": 747,
      "ټ": 748,
      "پ": 749,
      "ځ": 750,
      "چ": 751,
      "ړ": 752,
      "ڕ": 753,
      "ږ": 754,
      "ژ": 755,
      "ښ": 756,
      "ڠ": 757,
      "ڤ": 758,
      "ڨ": 759,
      "ک": 760,
      "ګ": 761,
      "ڬ": 762,
      "ڭ": 763,
      "گ": 764,
      "ڵ": 765,
      "ں": 766,
      "ھ": 767,
      "ہ": 768,
      "ۆ": 769,
      "ۈ": 770,
      "ی": 771,
      "ێ": 772,
      "ۏ": 773,
      "ې": 774,
      "ە": 775,
      "۰": 776,
      "۱": 777,
      "۲": 778,
      "۳": 779,
      "۴": 780,
      "۵": 781,
      "۶": 782,
      "۷": 783,
      "۸": 784,
      "۹": 785,
      "ܐ": 786,
      "ܒ": 787,
      "ܕ": 788,
      "ܗ": 789,
      "ܘ": 790,
      "ܚ": 791,
      "ܛ": 792,
      "ܝ": 793,
      "ܟ": 794,
      "ܠ": 795,
      "ܡ": 796,
      "ܢ": 797,
      "ܣ": 798,
      "ܥ": 799,
      "ܦ": 800,
      "ܨ": 801,
      "ܩ": 802,
      "ܪ": 803,
      "ܫ": 804,
      "ܬ": 805,
      "ހ": 806,
      "ރ": 807,
      "އ": 808,
      "ވ": 809,
      "މ": 810,
      "ދ": 811,
      "ލ": 812,
      "ގ": 813,
      "ސ": 814,
      "ޔ": 815,
      "ޖ": 816,
      "ޤ": 817,
      "अ": 818,
      "आ": 819,
      "इ": 820,
      "ई": 821,
      "उ": 822,
      "ऋ": 823,
      "ओ": 824,
      "औ": 825,
      "क": 826,
      "ख": 827,
      "ग": 828,
      "घ": 829,
      "ङ": 830,
      "च": 831,
      "ज": 832,
      "ट": 833,
      "ठ": 834,
      "ड": 835,
      "ढ": 836,
      "ण": 837,
      "त": 838,
      "थ": 839,
      "द": 840,
      "ध": 841,
      "न": 842,
      "प": 843,
      "फ": 844,
      "ब": 845,
      "भ": 846,
      "म": 847,
      "य": 848,
      "र": 849,
      "ल": 850,
      "ळ": 851,
      "व": 852,
      "श": 853,
      "ष": 854,
      "स": 855,
      "ह": 856,
      "ॐ": 857,
      "०": 858,
      "१": 859,
      "२": 860,
      "३": 861,
      "४": 862,
      "५": 863,
      "६": 864,
      "७": 865,
      "८": 866,
      "९": 867,
      "অ": 868,
      "আ": 869,
      "ই": 870,
      "ও": 871,
      "ক": 872,
      "খ": 873,
      "গ": 874,
      "ঙ": 875,
      "চ": 876,
      "ছ": 877,
      "জ": 878,
      "ঝ": 879,
      "ঞ": 880,
      "ট": 881,
      "ঠ": 882,
      "ড": 883,
      "ঢ": 884,
      "ণ": 885,
      "ত": 886,
      "দ": 887,
      "ধ": 888,
      "ন": 889,
      "প": 890,
      "ফ": 891,
      "ব": 892,
      "ভ": 893,
      "ম": 894,
      "য": 895,
      "র": 896,
      "ল": 897,
      "শ": 898,
      "ষ": 899,
      "স": 900,
      "হ": 901,
      "ਗ": 902,
      "ਜ": 903,
      "ਥ": 904,
      "ਦ": 905,
      "ਪ": 906,
      "ਬ": 907,
      "ਰ": 908,
      "ਲ": 909,
      "ਸ": 910,
      "ਹ": 911,
      "ક": 912,
      "ખ": 913,
      "ગ": 914,
      "ચ": 915,
      "જ": 916,
      "ત": 917,
      "દ": 918,
      "ધ": 919,
      "ન": 920,
      "ફ": 921,
      "બ": 922,
      "મ": 923,
      "ર": 924,
      "લ": 925,
      "સ": 926,
      "હ": 927,
      "அ": 928,
      "இ": 929,
      "க": 930,
      "ங": 931,
      "ச": 932,
      "ஜ": 933,
      "ட": 934,
      "ண": 935,
      "த": 936,
      "ந": 937,
      "ன": 938,
      "ப": 939,
      "ம": 940,
      "ய": 941,
      "ர": 942,
      "ல": 943,
      "ள": 944,
      "ழ": 945,
      "வ": 946,
      "௧": 947,
      "௨": 948,
      "௩": 949,
      "௪": 950,
      "௫": 951,
      "௬": 952,
      "௭": 953,
      "௮": 954,
      "௯": 955,
      "అ": 956,
      "క": 957,
      "డ": 958,
      "ద": 959,
      "న": 960,
      "బ": 961,
      "మ": 962,
      "ర": 963,
      "ల": 964,
      "వ": 965,
      "ಕ": 966,
      "ಗ": 967,
      "ಚ": 968,
      "ಜ": 969,
      "ಡ": 970,
      "ನ": 971,
      "ಬ": 972,
      "ಯ": 973,
      "ರ": 974,
      "ಲ": 975,
      "ಳ": 976,
      "ವ": 977,
      "ಶ": 978,
      "ആ": 979,
      "ക": 980,
      "ത": 981,
      "ഥ": 982,
      "ദ": 983,
      "ന": 984,
      "പ": 985,
      "ബ": 986,
      "മ": 987,
      "യ": 988,
      "ര": 989,
      "ള": 990,
      "ഴ": 991,
      "വ": 992,
      "ක": 993,
      "ග": 994,
      "ච": 995,
      "ජ": 996,
      "ඩ": 997,
      "ණ": 998,
      "ත": 999,
      "ද": 1000,
      "න": 1001,
      "ප": 1002,
      "බ": 1003,
      "ම": 1004,
      "ය": 1005,
      "ර": 1006,
      "ල": 1007,
      "ව": 1008,
      "ශ": 1009,
      "ස": 1010,
      "හ": 1011,
      "ก": 1012,
      "ข": 1013,
      "ค": 1014,
      "ฅ": 1015,
      "ฆ": 1016,
      "ง": 1017,
      "จ": 1018,
      "ฉ": 1019,
      "ช": 1020,
      "ซ": 1021,
      "ญ": 1022,
      "ฎ": 1023,
      "ฏ": 1024,
      "ฑ": 1025,
      "ฒ": 1026,
      "ณ": 1027,
      "ด": 1028,
      "ต": 1029,
      "ถ": 1030,
      "ท": 1031,
      "ธ": 1032,
      "น": 1033,
      "บ": 1034,
      "ป": 1035,
      "ผ": 1036,
      "พ": 1037,
      "ฟ": 1038,
      "ภ": 1039,
      "ม": 1040,
      "ย": 1041,
      "ร": 1042,
      "ฤ": 1043,
      "ล": 1044,
      "ฦ": 1045,
      "ว": 1046,
      "ศ": 1047,
      "ษ": 1048,
      "ส": 1049,
      "ห": 1050,
      "ฬ": 1051,
      "อ": 1052,
      "ฮ": 1053,
      "ะ": 1054,
      "า": 1055,
      "ำ": 1056,
      "เ": 1057,
      "แ": 1058,
      "โ": 1059,
      "ใ": 1060,
      "ไ": 1061,
      "ๅ": 1062,
      "๐": 1063,
      "๑": 1064,
      "๒": 1065,
      "๓": 1066,
      "๔": 1067,
      "๕": 1068,
      "๖": 1069,
      "๗": 1070,
      "๘": 1071,
      "๙": 1072,
      "ກ": 1073,
      "ຂ": 1074,
      "ຄ": 1075,
      "ງ": 1076,
      "ຈ": 1077,
      "ຊ": 1078,
      "ດ": 1079,
      "ຕ": 1080,
      "ທ": 1081,
      "ນ": 1082,
      "ບ": 1083,
      "ປ": 1084,
      "ພ": 1085,
      "ມ": 1086,
      "ລ": 1087,
      "ວ": 1088,
      "ສ": 1089,
      "ຫ": 1090,
      "ອ": 1091,
      "ະ": 1092,
      "າ": 1093,
      "ຳ": 1094,
      "ຽ": 1095,
      "ເ": 1096,
      "ແ": 1097,
      "ໃ": 1098,
      "ໄ": 1099,
      "ໜ": 1100,
      "ཁ": 1101,
      "ག": 1102,
      "ང": 1103,
      "ད": 1104,
      "བ": 1105,
      "མ": 1106,
      "འ": 1107,
      "ཡ": 1108,
      "ར": 1109,
      "ལ": 1110,
      "ས": 1111,
      "ཧ": 1112,
      "က": 1113,
      "ခ": 1114,
      "င": 1115,
      "စ": 1116,
      "ဆ": 1117,
      "ည": 1118,
      "တ": 1119,
      "ထ": 1120,
      "ဒ": 1121,
      "န": 1122,
      "ပ": 1123,
      "ဖ": 1124,
      "ဗ": 1125,
      "မ": 1126,
      "ယ": 1127,
      "ရ": 1128,
      "လ": 1129,
      "သ": 1130,
      "အ": 1131,
      "ၵ": 1132,
      "ა": 1133,
      "ბ": 1134,
      "გ": 1135,
      "დ": 1136,
      "ე": 1137,
      "ვ": 1138,
      "ზ": 1139,
      "თ": 1140,
      "ი": 1141,
      "კ": 1142,
      "ლ": 1143,
      "მ": 1144,
      "ნ": 1145,
      "ო": 1146,
      "პ": 1147,
      "რ": 1148,
      "ს": 1149,
      "ტ": 1150,
      "უ": 1151,
      "ფ": 1152,
      "ქ": 1153,
      "ღ": 1154,
      "შ": 1155,
      "ჩ": 1156,
      "ც": 1157,
      "ძ": 1158,
      "ჭ": 1159,
      "ხ": 1160,
      "ჯ": 1161,
      "ሁ": 1162,
      "ለ": 1163,
      "ሊ": 1164,
      "ላ": 1165,
      "ሌ": 1166,
      "ል": 1167,
      "ሎ": 1168,
      "ሔ": 1169,
      "መ": 1170,
      "ማ": 1171,
      "ም": 1172,
      "ሞ": 1173,
      "ሠ": 1174,
      "ሥ": 1175,
      "ረ": 1176,
      "ሪ": 1177,
      "ራ": 1178,
      "ር": 1179,
      "ሮ": 1180,
      "ሰ": 1181,
      "ሳ": 1182,
      "ሴ": 1183,
      "ስ": 1184,
      "ቀ": 1185,
      "ቂ": 1186,
      "ቅ": 1187,
      "በ": 1188,
      "ቢ": 1189,
      "ባ": 1190,
      "ቤ": 1191,
      "ብ": 1192,
      "ተ": 1193,
      "ቱ": 1194,
      "ታ": 1195,
      "ቴ": 1196,
      "ት": 1197,
      "ኃ": 1198,
      "ኅ": 1199,
      "ነ": 1200,
      "ና": 1201,
      "ኔ": 1202,
      "ን": 1203,
      "ኛ": 1204,
      "አ": 1205,
      "ኢ": 1206,
      "ኣ": 1207,
      "ኤ": 1208,
      "እ": 1209,
      "ከ": 1210,
      "ክ": 1211,
      "ኮ": 1212,
      "ኰ": 1213,
      "ወ": 1214,
      "ዊ": 1215,
      "ዎ": 1216,
      "ዓ": 1217,
      "ዘ": 1218,
      "ዚ": 1219,
      "ዜ": 1220,
      "የ": 1221,
      "ዩ": 1222,
      "ያ": 1223,
      "ይ": 1224,
      "ዮ": 1225,
      "ደ": 1226,
      "ዲ": 1227,
      "ዳ": 1228,
      "ድ": 1229,
      "ገ": 1230,
      "ጉ": 1231,
      "ጊ": 1232,
      "ግ": 1233,
      "ጵ": 1234,
      "ፄ": 1235,
      "ፈ": 1236,
      "ፊ": 1237,
      "Ꮎ": 1238,
      "Ꮟ": 1239,
      "Ꮤ": 1240,
      "ᐊ": 1241,
      "ᑐ": 1242,
      "ᑕ": 1243,
      "ᑦ": 1244,
      "ᓄ": 1245,
      "ᓇ": 1246,
      "ᓐ": 1247,
      "ᔪ": 1248,
      "ᕗ": 1249,
      "ᚠ": 1250,
      "ᚢ": 1251,
      "ᚦ": 1252,
      "ᚨ": 1253,
      "ᚬ": 1254,
      "ᚭ": 1255,
      "ᚱ": 1256,
      "ᚴ": 1257,
      "ᚼ": 1258,
      "ᚽ": 1259,
      "ᚾ": 1260,
      "ᚿ": 1261,
      "ᛁ": 1262,
      "ᛅ": 1263,
      "ᛆ": 1264,
      "ᛋ": 1265,
      "ᛌ": 1266,
      "ᛏ": 1267,
      "ᛐ": 1268,
      "ᛒ": 1269,
      "ᛓ": 1270,
      "ᛘ": 1271,
      "ᛙ": 1272,
      "ᛚ": 1273,
      "ᛟ": 1274,
      "ᛦ": 1275,
      "ᛧ": 1276,
      "ក": 1277,
      "ខ": 1278,
      "គ": 1279,
      "ឃ": 1280,
      "ង": 1281,
      "ច": 1282,
      "ជ": 1283,
      "ញ": 1284,
      "ដ": 1285,
      "ឋ": 1286,
      "ណ": 1287,
      "ត": 1288,
      "ថ": 1289,
      "ទ": 1290,
      "ធ": 1291,
      "ន": 1292,
      "ប": 1293,
      "ព": 1294,
      "ភ": 1295,
      "ម": 1296,
      "យ": 1297,
      "រ": 1298,
      "ល": 1299,
      "វ": 1300,
      "ស": 1301,
      "ហ": 1302,
      "អ": 1303,
      "ឧ": 1304,
      "ឱ": 1305,
      "ᵱ": 1306,
      "ḇ": 1307,
      "ḋ": 1308,
      "Ḍ": 1309,
      "ḍ": 1310,
      "ḏ": 1311,
      "Ḑ": 1312,
      "ḕ": 1313,
      "ḗ": 1314,
      "Ḡ": 1315,
      "ḡ": 1316,
      "Ḥ": 1317,
      "ḥ": 1318,
      "Ḩ": 1319,
      "ḩ": 1320,
      "Ḫ": 1321,
      "ḫ": 1322,
      "ḱ": 1323,
      "Ḳ": 1324,
      "ḳ": 1325,
      "ḵ": 1326,
      "ḷ": 1327,
      "ḹ": 1328,
      "ḻ": 1329,
      "ṁ": 1330,
      "ṃ": 1331,
      "ṅ": 1332,
      "ṇ": 1333,
      "ṉ": 1334,
      "ṓ": 1335,
      "ṕ": 1336,
      "ṗ": 1337,
      "ṙ": 1338,
      "Ṛ": 1339,
      "ṛ": 1340,
      "ṝ": 1341,
      "ṟ": 1342,
      "Ṣ": 1343,
      "ṣ": 1344,
      "Ṭ": 1345,
      "ṭ": 1346,
      "ṯ": 1347,
      "ṵ": 1348,
      "Ẋ": 1349,
      "Ẓ": 1350,
      "ẓ": 1351,
      "ẖ": 1352,
      "ẞ": 1353,
      "ạ": 1354,
      "ả": 1355,
      "ấ": 1356,
      "ầ": 1357,
      "ẩ": 1358,
      "ậ": 1359,
      "ắ": 1360,
      "ằ": 1361,
      "ẵ": 1362,
      "ặ": 1363,
      "Ẹ": 1364,
      "ẻ": 1365,
      "Ẽ": 1366,
      "ẽ": 1367,
      "ế": 1368,
      "ề": 1369,
      "ể": 1370,
      "ễ": 1371,
      "ệ": 1372,
      "ỉ": 1373,
      "ị": 1374,
      "Ọ": 1375,
      "ọ": 1376,
      "ỏ": 1377,
      "ố": 1378,
      "ồ": 1379,
      "ổ": 1380,
      "ỗ": 1381,
      "ộ": 1382,
      "ớ": 1383,
      "ờ": 1384,
      "ở": 1385,
      "ợ": 1386,
      "ụ": 1387,
      "ủ": 1388,
      "ứ": 1389,
      "ừ": 1390,
      "ử": 1391,
      "ữ": 1392,
      "ự": 1393,
      "ỳ": 1394,
      "ỹ": 1395,
      "ἀ": 1396,
      "ἁ": 1397,
      "ἄ": 1398,
      "ἅ": 1399,
      "ἆ": 1400,
      "Ἀ": 1401,
      "Ἁ": 1402,
      "Ἄ": 1403,
      "Ἅ": 1404,
      "Ἆ": 1405,
      "ἐ": 1406,
      "ἑ": 1407,
      "ἓ": 1408,
      "ἔ": 1409,
      "ἕ": 1410,
      "Ἐ": 1411,
      "Ἑ": 1412,
      "Ἔ": 1413,
      "Ἕ": 1414,
      "ἠ": 1415,
      "ἡ": 1416,
      "ἢ": 1417,
      "ἤ": 1418,
      "ἥ": 1419,
      "ἦ": 1420,
      "ἧ": 1421,
      "Ἠ": 1422,
      "Ἡ": 1423,
      "Ἥ": 1424,
      "ἰ": 1425,
      "ἱ": 1426,
      "ἲ": 1427,
      "ἴ": 1428,
      "ἵ": 1429,
      "ἶ": 1430,
      "ἷ": 1431,
      "Ἰ": 1432,
      "Ἱ": 1433,
      "Ἴ": 1434,
      "Ἶ": 1435,
      "ὀ": 1436,
      "ὁ": 1437,
      "ὄ": 1438,
      "ὅ": 1439,
      "Ὀ": 1440,
      "Ὁ": 1441,
      "Ὅ": 1442,
      "ὐ": 1443,
      "ὑ": 1444,
      "ὔ": 1445,
      "ὕ": 1446,
      "ὖ": 1447,
      "ὗ": 1448,
      "Ὑ": 1449,
      "Ὕ": 1450,
      "ὠ": 1451,
      "ὡ": 1452,
      "ὣ": 1453,
      "ὤ": 1454,
      "ὦ": 1455,
      "Ὠ": 1456,
      "Ὦ": 1457,
      "ὰ": 1458,
      "ὲ": 1459,
      "ὴ": 1460,
      "ὶ": 1461,
      "ὸ": 1462,
      "ὺ": 1463,
      "ὼ": 1464,
      "ᾄ": 1465,
      "ᾧ": 1466,
      "ᾰ": 1467,
      "ᾱ": 1468,
      "ᾳ": 1469,
      "ᾶ": 1470,
      "ῃ": 1471,
      "ῆ": 1472,
      "ῇ": 1473,
      "ῖ": 1474,
      "Ὶ": 1475,
      "ῠ": 1476,
      "ῤ": 1477,
      "ῥ": 1478,
      "ῦ": 1479,
      "Ὺ": 1480,
      "Ῥ": 1481,
      "ῳ": 1482,
      "ῴ": 1483,
      "ῶ": 1484,
      "ῷ": 1485,
      "–": 1486,
      "—": 1487,
      "⁰": 1488,
      "⁴": 1489,
      "⁵": 1490,
      "⁸": 1491,
      "₂": 1492,
      "ₙ": 1493,
      "€": 1494,
      "ℎ": 1495,
      "ℓ": 1496,
      "ℕ": 1497,
      "ℝ": 1498,
      "ℤ": 1499,
      "ℵ": 1500,
      "⅓": 1501,
      "⅔": 1502,
      "⅛": 1503,
      "⅜": 1504,
      "⅝": 1505,
      "⅞": 1506,
      "ↀ": 1507,
      "ↁ": 1508,
      "ↂ": 1509,
      "Ↄ": 1510,
      "①": 1511,
      "②": 1512,
      "⓪": 1513,
      "Ⲁ": 1514,
      "ⲁ": 1515,
      "Ⲃ": 1516,
      "ⲃ": 1517,
      "Ⲅ": 1518,
      "ⲅ": 1519,
      "Ⲇ": 1520,
      "ⲇ": 1521,
      "Ⲉ": 1522,
      "ⲉ": 1523,
      "Ⲋ": 1524,
      "ⲋ": 1525,
      "Ⲍ": 1526,
      "ⲍ": 1527,
      "Ⲏ": 1528,
      "ⲏ": 1529,
      "Ⲑ": 1530,
      "ⲑ": 1531,
      "Ⲓ": 1532,
      "ⲓ": 1533,
      "Ⲕ": 1534,
      "ⲕ": 1535,
      "Ⲗ": 1536,
      "ⲗ": 1537,
      "Ⲙ": 1538,
      "ⲙ": 1539,
      "Ⲛ": 1540,
      "ⲛ": 1541,
      "Ⲝ": 1542,
      "ⲝ": 1543,
      "Ⲟ": 1544,
      "ⲟ": 1545,
      "Ⲡ": 1546,
      "ⲡ": 1547,
      "Ⲣ": 1548,
      "ⲣ": 1549,
      "Ⲥ": 1550,
      "ⲥ": 1551,
      "Ⲧ": 1552,
      "ⲧ": 1553,
      "Ⲩ": 1554,
      "ⲩ": 1555,
      "Ⲫ": 1556,
      "ⲫ": 1557,
      "Ⲭ": 1558,
      "ⲭ": 1559,
      "Ⲯ": 1560,
      "ⲯ": 1561,
      "Ⲱ": 1562,
      "ⲱ": 1563,
      "Ⳁ": 1564,
      "ⳁ": 1565,
      "Ⳉ": 1566,
      "ⳉ": 1567,
      "ⴰ": 1568,
      "ⴱ": 1569,
      "ⴳ": 1570,
      "ⴷ": 1571,
      "ⴻ": 1572,
      "ⴼ": 1573,
      "ⴽ": 1574,
      "ⵃ": 1575,
      "ⵄ": 1576,
      "ⵅ": 1577,
      "ⵇ": 1578,
      "ⵉ": 1579,
      "ⵊ": 1580,
      "ⵍ": 1581,
      "ⵎ": 1582,
      "ⵏ": 1583,
      "ⵓ": 1584,
      "ⵔ": 1585,
      "ⵕ": 1586,
      "ⵖ": 1587,
      "ⵛ": 1588,
      "ⵜ": 1589,
      "ⵟ": 1590,
      "ⵡ": 1591,
      "ⵢ": 1592,
      "ⵣ": 1593,
      "あ": 1594,
      "い": 1595,
      "う": 1596,
      "え": 1597,
      "お": 1598,
      "か": 1599,
      "が": 1600,
      "き": 1601,
      "ぎ": 1602,
      "く": 1603,
      "ぐ": 1604,
      "け": 1605,
      "げ": 1606,
      "こ": 1607,
      "さ": 1608,
      "ざ": 1609,
      "し": 1610,
      "じ": 1611,
      "す": 1612,
      "ず": 1613,
      "せ": 1614,
      "そ": 1615,
      "た": 1616,
      "だ": 1617,
      "ち": 1618,
      "ぢ": 1619,
      "っ": 1620,
      "つ": 1621,
      "づ": 1622,
      "て": 1623,
      "で": 1624,
      "と": 1625,
      "ど": 1626,
      "な": 1627,
      "に": 1628,
      "ぬ": 1629,
      "ね": 1630,
      "の": 1631,
      "は": 1632,
      "ば": 1633,
      "ひ": 1634,
      "び": 1635,
      "ふ": 1636,
      "ぶ": 1637,
      "べ": 1638,
      "ほ": 1639,
      "ぽ": 1640,
      "ま": 1641,
      "み": 1642,
      "め": 1643,
      "も": 1644,
      "ゃ": 1645,
      "や": 1646,
      "ゅ": 1647,
      "ゆ": 1648,
      "ょ": 1649,
      "よ": 1650,
      "ら": 1651,
      "り": 1652,
      "る": 1653,
      "れ": 1654,
      "わ": 1655,
      "を": 1656,
      "ん": 1657,
      "ァ": 1658,
      "ア": 1659,
      "ィ": 1660,
      "イ": 1661,
      "ウ": 1662,
      "ェ": 1663,
      "エ": 1664,
      "オ": 1665,
      "カ": 1666,
      "ガ": 1667,
      "キ": 1668,
      "ギ": 1669,
      "ク": 1670,
      "グ": 1671,
      "ケ": 1672,
      "ゲ": 1673,
      "コ": 1674,
      "ゴ": 1675,
      "サ": 1676,
      "シ": 1677,
      "ジ": 1678,
      "ス": 1679,
      "ズ": 1680,
      "セ": 1681,
      "ゼ": 1682,
      "ソ": 1683,
      "タ": 1684,
      "ダ": 1685,
      "チ": 1686,
      "ヂ": 1687,
      "ッ": 1688,
      "ツ": 1689,
      "テ": 1690,
      "デ": 1691,
      "ト": 1692,
      "ド": 1693,
      "ナ": 1694,
      "ニ": 1695,
      "ヌ": 1696,
      "ネ": 1697,
      "ノ": 1698,
      "ハ": 1699,
      "バ": 1700,
      "パ": 1701,
      "ヒ": 1702,
      "ビ": 1703,
      "ピ": 1704,
      "フ": 1705,
      "ブ": 1706,
      "プ": 1707,
      "ベ": 1708,
      "ペ": 1709,
      "ホ": 1710,
      "ボ": 1711,
      "ポ": 1712,
      "マ": 1713,
      "ミ": 1714,
      "ム": 1715,
      "メ": 1716,
      "モ": 1717,
      "ャ": 1718,
      "ュ": 1719,
      "ユ": 1720,
      "ョ": 1721,
      "ヨ": 1722,
      "ラ": 1723,
      "リ": 1724,
      "ル": 1725,
      "レ": 1726,
      "ロ": 1727,
      "ワ": 1728,
      "ン": 1729,
      "ヴ": 1730,
      "ヶ": 1731,
      "ー": 1732,
      "ㄌ": 1733,
      "ㄢ": 1734,
      "ㄨ": 1735,
      "㐌": 1736,
      "㘇": 1737,
      "一": 1738,
      "丁": 1739,
      "七": 1740,
      "万": 1741,
      "三": 1742,
      "上": 1743,
      "下": 1744,
      "不": 1745,
      "与": 1746,
      "且": 1747,
      "丕": 1748,
      "世": 1749,
      "丘": 1750,
      "东": 1751,
      "丝": 1752,
      "两": 1753,
      "个": 1754,
      "丫": 1755,
      "中": 1756,
      "临": 1757,
      "丸": 1758,
      "丹": 1759,
      "为": 1760,
      "主": 1761,
      "久": 1762,
      "义": 1763,
      "之": 1764,
      "乐": 1765,
      "乙": 1766,
      "九": 1767,
      "乞": 1768,
      "书": 1769,
      "买": 1770,
      "乱": 1771,
      "亀": 1772,
      "争": 1773,
      "事": 1774,
      "二": 1775,
      "于": 1776,
      "云": 1777,
      "五": 1778,
      "井": 1779,
      "些": 1780,
      "亜": 1781,
      "亞": 1782,
      "亠": 1783,
      "亡": 1784,
      "交": 1785,
      "京": 1786,
      "亭": 1787,
      "亲": 1788,
      "人": 1789,
      "仁": 1790,
      "今": 1791,
      "介": 1792,
      "仍": 1793,
      "仏": 1794,
      "仑": 1795,
      "仕": 1796,
      "他": 1797,
      "仙": 1798,
      "代": 1799,
      "令": 1800,
      "仪": 1801,
      "仮": 1802,
      "仲": 1803,
      "件": 1804,
      "任": 1805,
      "伊": 1806,
      "伍": 1807,
      "伏": 1808,
      "休": 1809,
      "会": 1810,
      "伝": 1811,
      "伟": 1812,
      "伦": 1813,
      "伯": 1814,
      "住": 1815,
      "佐": 1816,
      "佑": 1817,
      "体": 1818,
      "何": 1819,
      "余": 1820,
      "佛": 1821,
      "作": 1822,
      "佟": 1823,
      "使": 1824,
      "來": 1825,
      "侍": 1826,
      "依": 1827,
      "侯": 1828,
      "便": 1829,
      "俄": 1830,
      "俊": 1831,
      "俗": 1832,
      "信": 1833,
      "俳": 1834,
      "倉": 1835,
      "倍": 1836,
      "候": 1837,
      "倪": 1838,
      "倭": 1839,
      "假": 1840,
      "偉": 1841,
      "健": 1842,
      "偽": 1843,
      "傅": 1844,
      "備": 1845,
      "傳": 1846,
      "傷": 1847,
      "僕": 1848,
      "儀": 1849,
      "儒": 1850,
      "儿": 1851,
      "元": 1852,
      "兄": 1853,
      "充": 1854,
      "先": 1855,
      "光": 1856,
      "克": 1857,
      "児": 1858,
      "兒": 1859,
      "兔": 1860,
      "党": 1861,
      "全": 1862,
      "八": 1863,
      "公": 1864,
      "六": 1865,
      "兰": 1866,
      "共": 1867,
      "兴": 1868,
      "兵": 1869,
      "具": 1870,
      "典": 1871,
      "冀": 1872,
      "内": 1873,
      "円": 1874,
      "冒": 1875,
      "写": 1876,
      "军": 1877,
      "农": 1878,
      "冠": 1879,
      "冬": 1880,
      "冷": 1881,
      "准": 1882,
      "凝": 1883,
      "凯": 1884,
      "凰": 1885,
      "凱": 1886,
      "凶": 1887,
      "出": 1888,
      "击": 1889,
      "函": 1890,
      "刀": 1891,
      "分": 1892,
      "切": 1893,
      "刊": 1894,
      "列": 1895,
      "刘": 1896,
      "初": 1897,
      "別": 1898,
      "利": 1899,
      "别": 1900,
      "到": 1901,
      "制": 1902,
      "則": 1903,
      "剑": 1904,
      "剛": 1905,
      "剣": 1906,
      "剧": 1907,
      "副": 1908,
      "創": 1909,
      "劇": 1910,
      "劉": 1911,
      "力": 1912,
      "功": 1913,
      "加": 1914,
      "助": 1915,
      "勅": 1916,
      "勇": 1917,
      "動": 1918,
      "勘": 1919,
      "勝": 1920,
      "勞": 1921,
      "勢": 1922,
      "勲": 1923,
      "勿": 1924,
      "包": 1925,
      "匏": 1926,
      "化": 1927,
      "北": 1928,
      "区": 1929,
      "医": 1930,
      "區": 1931,
      "十": 1932,
      "千": 1933,
      "升": 1934,
      "午": 1935,
      "半": 1936,
      "卍": 1937,
      "华": 1938,
      "卐": 1939,
      "卑": 1940,
      "南": 1941,
      "単": 1942,
      "博": 1943,
      "卜": 1944,
      "卫": 1945,
      "印": 1946,
      "卷": 1947,
      "厉": 1948,
      "厘": 1949,
      "厚": 1950,
      "原": 1951,
      "县": 1952,
      "叁": 1953,
      "参": 1954,
      "參": 1955,
      "叉": 1956,
      "及": 1957,
      "友": 1958,
      "反": 1959,
      "取": 1960,
      "受": 1961,
      "叠": 1962,
      "叢": 1963,
      "口": 1964,
      "古": 1965,
      "句": 1966,
      "只": 1967,
      "可": 1968,
      "台": 1969,
      "史": 1970,
      "右": 1971,
      "号": 1972,
      "司": 1973,
      "各": 1974,
      "合": 1975,
      "吉": 1976,
      "同": 1977,
      "名": 1978,
      "后": 1979,
      "吗": 1980,
      "君": 1981,
      "吞": 1982,
      "吟": 1983,
      "吳": 1984,
      "吴": 1985,
      "吶": 1986,
      "吾": 1987,
      "呂": 1988,
      "呉": 1989,
      "周": 1990,
      "味": 1991,
      "命": 1992,
      "咁": 1993,
      "和": 1994,
      "咕": 1995,
      "咦": 1996,
      "咫": 1997,
      "咸": 1998,
      "員": 1999,
      "哲": 2000,
      "唐": 2001,
      "唯": 2002,
      "唱": 2003,
      "商": 2004,
      "喀": 2005,
      "喃": 2006,
      "喇": 2007,
      "喊": 2008,
      "喜": 2009,
      "営": 2010,
      "嗇": 2011,
      "嗎": 2012,
      "嗣": 2013,
      "嘆": 2014,
      "嘉": 2015,
      "噛": 2016,
      "噜": 2017,
      "噶": 2018,
      "嚕": 2019,
      "四": 2020,
      "回": 2021,
      "团": 2022,
      "団": 2023,
      "囧": 2024,
      "囲": 2025,
      "図": 2026,
      "围": 2027,
      "固": 2028,
      "国": 2029,
      "图": 2030,
      "圆": 2031,
      "國": 2032,
      "圏": 2033,
      "園": 2034,
      "圓": 2035,
      "圖": 2036,
      "團": 2037,
      "土": 2038,
      "圣": 2039,
      "在": 2040,
      "圭": 2041,
      "地": 2042,
      "圳": 2043,
      "坂": 2044,
      "块": 2045,
      "坟": 2046,
      "坡": 2047,
      "型": 2048,
      "垣": 2049,
      "城": 2050,
      "埙": 2051,
      "域": 2052,
      "埠": 2053,
      "基": 2054,
      "堂": 2055,
      "堆": 2056,
      "報": 2057,
      "場": 2058,
      "塊": 2059,
      "塔": 2060,
      "塘": 2061,
      "塚": 2062,
      "境": 2063,
      "増": 2064,
      "增": 2065,
      "墨": 2066,
      "壓": 2067,
      "士": 2068,
      "壮": 2069,
      "声": 2070,
      "売": 2071,
      "壹": 2072,
      "壽": 2073,
      "复": 2074,
      "夏": 2075,
      "夕": 2076,
      "外": 2077,
      "多": 2078,
      "夜": 2079,
      "夢": 2080,
      "大": 2081,
      "天": 2082,
      "太": 2083,
      "夫": 2084,
      "夷": 2085,
      "奇": 2086,
      "奈": 2087,
      "奉": 2088,
      "契": 2089,
      "奔": 2090,
      "套": 2091,
      "奥": 2092,
      "奮": 2093,
      "女": 2094,
      "如": 2095,
      "妈": 2096,
      "始": 2097,
      "姒": 2098,
      "委": 2099,
      "姨": 2100,
      "姫": 2101,
      "姬": 2102,
      "威": 2103,
      "婁": 2104,
      "婚": 2105,
      "婴": 2106,
      "媛": 2107,
      "媽": 2108,
      "嬴": 2109,
      "子": 2110,
      "孔": 2111,
      "字": 2112,
      "孙": 2113,
      "孛": 2114,
      "孝": 2115,
      "孤": 2116,
      "学": 2117,
      "孫": 2118,
      "學": 2119,
      "孺": 2120,
      "宁": 2121,
      "宅": 2122,
      "宇": 2123,
      "安": 2124,
      "宋": 2125,
      "完": 2126,
      "宏": 2127,
      "宕": 2128,
      "宗": 2129,
      "官": 2130,
      "宙": 2131,
      "定": 2132,
      "宜": 2133,
      "宝": 2134,
      "実": 2135,
      "客": 2136,
      "宣": 2137,
      "室": 2138,
      "宫": 2139,
      "宮": 2140,
      "宰": 2141,
      "家": 2142,
      "宸": 2143,
      "容": 2144,
      "富": 2145,
      "寐": 2146,
      "寝": 2147,
      "寧": 2148,
      "審": 2149,
      "寬": 2150,
      "寶": 2151,
      "寺": 2152,
      "寿": 2153,
      "封": 2154,
      "将": 2155,
      "將": 2156,
      "尉": 2157,
      "尊": 2158,
      "尋": 2159,
      "導": 2160,
      "小": 2161,
      "少": 2162,
      "尔": 2163,
      "尚": 2164,
      "尢": 2165,
      "尺": 2166,
      "尼": 2167,
      "尾": 2168,
      "局": 2169,
      "屋": 2170,
      "屠": 2171,
      "層": 2172,
      "屯": 2173,
      "山": 2174,
      "岌": 2175,
      "岐": 2176,
      "岑": 2177,
      "岡": 2178,
      "岩": 2179,
      "岬": 2180,
      "岳": 2181,
      "岸": 2182,
      "峡": 2183,
      "峰": 2184,
      "峴": 2185,
      "島": 2186,
      "崇": 2187,
      "崎": 2188,
      "崖": 2189,
      "崴": 2190,
      "嶽": 2191,
      "川": 2192,
      "州": 2193,
      "巢": 2194,
      "工": 2195,
      "左": 2196,
      "巧": 2197,
      "巨": 2198,
      "己": 2199,
      "已": 2200,
      "巻": 2201,
      "市": 2202,
      "布": 2203,
      "师": 2204,
      "帕": 2205,
      "帝": 2206,
      "帥": 2207,
      "師": 2208,
      "席": 2209,
      "帯": 2210,
      "常": 2211,
      "幌": 2212,
      "幕": 2213,
      "幡": 2214,
      "干": 2215,
      "平": 2216,
      "年": 2217,
      "幸": 2218,
      "幹": 2219,
      "幻": 2220,
      "幼": 2221,
      "广": 2222,
      "庁": 2223,
      "広": 2224,
      "庄": 2225,
      "庆": 2226,
      "底": 2227,
      "店": 2228,
      "庙": 2229,
      "府": 2230,
      "座": 2231,
      "庫": 2232,
      "庭": 2233,
      "康": 2234,
      "廃": 2235,
      "廉": 2236,
      "廣": 2237,
      "建": 2238,
      "开": 2239,
      "式": 2240,
      "引": 2241,
      "弗": 2242,
      "弟": 2243,
      "张": 2244,
      "張": 2245,
      "弼": 2246,
      "弾": 2247,
      "当": 2248,
      "录": 2249,
      "形": 2250,
      "彦": 2251,
      "彩": 2252,
      "彰": 2253,
      "影": 2254,
      "彷": 2255,
      "彼": 2256,
      "征": 2257,
      "律": 2258,
      "後": 2259,
      "徐": 2260,
      "從": 2261,
      "御": 2262,
      "徨": 2263,
      "微": 2264,
      "徳": 2265,
      "徵": 2266,
      "德": 2267,
      "徽": 2268,
      "心": 2269,
      "必": 2270,
      "忍": 2271,
      "志": 2272,
      "忘": 2273,
      "応": 2274,
      "忠": 2275,
      "念": 2276,
      "忽": 2277,
      "怀": 2278,
      "急": 2279,
      "性": 2280,
      "总": 2281,
      "恄": 2282,
      "恋": 2283,
      "恐": 2284,
      "恩": 2285,
      "恭": 2286,
      "悁": 2287,
      "悔": 2288,
      "悟": 2289,
      "悪": 2290,
      "悯": 2291,
      "惑": 2292,
      "惠": 2293,
      "愚": 2294,
      "愛": 2295,
      "感": 2296,
      "慈": 2297,
      "慣": 2298,
      "慧": 2299,
      "慳": 2300,
      "慶": 2301,
      "憲": 2302,
      "懷": 2303,
      "戈": 2304,
      "成": 2305,
      "我": 2306,
      "战": 2307,
      "戦": 2308,
      "戰": 2309,
      "戲": 2310,
      "戸": 2311,
      "房": 2312,
      "所": 2313,
      "扁": 2314,
      "手": 2315,
      "才": 2316,
      "打": 2317,
      "托": 2318,
      "找": 2319,
      "技": 2320,
      "抄": 2321,
      "投": 2322,
      "折": 2323,
      "报": 2324,
      "押": 2325,
      "拉": 2326,
      "拓": 2327,
      "拘": 2328,
      "拼": 2329,
      "拾": 2330,
      "指": 2331,
      "振": 2332,
      "捌": 2333,
      "排": 2334,
      "推": 2335,
      "揚": 2336,
      "握": 2337,
      "搾": 2338,
      "摩": 2339,
      "撃": 2340,
      "撈": 2341,
      "撑": 2342,
      "撘": 2343,
      "支": 2344,
      "攸": 2345,
      "攻": 2346,
      "放": 2347,
      "政": 2348,
      "故": 2349,
      "敏": 2350,
      "救": 2351,
      "敔": 2352,
      "教": 2353,
      "散": 2354,
      "敬": 2355,
      "文": 2356,
      "斉": 2357,
      "斋": 2358,
      "斎": 2359,
      "斑": 2360,
      "斗": 2361,
      "斤": 2362,
      "断": 2363,
      "斯": 2364,
      "新": 2365,
      "方": 2366,
      "旅": 2367,
      "族": 2368,
      "旗": 2369,
      "旛": 2370,
      "无": 2371,
      "日": 2372,
      "旦": 2373,
      "旧": 2374,
      "早": 2375,
      "旭": 2376,
      "昆": 2377,
      "昌": 2378,
      "明": 2379,
      "星": 2380,
      "春": 2381,
      "昭": 2382,
      "時": 2383,
      "晃": 2384,
      "晉": 2385,
      "晋": 2386,
      "晏": 2387,
      "普": 2388,
      "景": 2389,
      "智": 2390,
      "暴": 2391,
      "曜": 2392,
      "曲": 2393,
      "更": 2394,
      "書": 2395,
      "曹": 2396,
      "曼": 2397,
      "曾": 2398,
      "最": 2399,
      "會": 2400,
      "月": 2401,
      "朔": 2402,
      "朗": 2403,
      "朝": 2404,
      "期": 2405,
      "木": 2406,
      "未": 2407,
      "末": 2408,
      "本": 2409,
      "札": 2410,
      "朱": 2411,
      "杂": 2412,
      "权": 2413,
      "杉": 2414,
      "李": 2415,
      "村": 2416,
      "杜": 2417,
      "杠": 2418,
      "条": 2419,
      "来": 2420,
      "杨": 2421,
      "杭": 2422,
      "杯": 2423,
      "東": 2424,
      "杵": 2425,
      "松": 2426,
      "板": 2427,
      "极": 2428,
      "林": 2429,
      "果": 2430,
      "枡": 2431,
      "柑": 2432,
      "柒": 2433,
      "柔": 2434,
      "柝": 2435,
      "柷": 2436,
      "栄": 2437,
      "树": 2438,
      "栗": 2439,
      "株": 2440,
      "核": 2441,
      "根": 2442,
      "桂": 2443,
      "桓": 2444,
      "桜": 2445,
      "梁": 2446,
      "條": 2447,
      "梧": 2448,
      "梭": 2449,
      "棋": 2450,
      "棣": 2451,
      "森": 2452,
      "椅": 2453,
      "植": 2454,
      "楊": 2455,
      "楠": 2456,
      "業": 2457,
      "楯": 2458,
      "楳": 2459,
      "極": 2460,
      "榆": 2461,
      "榮": 2462,
      "樂": 2463,
      "樓": 2464,
      "樞": 2465,
      "横": 2466,
      "樹": 2467,
      "樺": 2468,
      "樽": 2469,
      "橋": 2470,
      "橘": 2471,
      "機": 2472,
      "橫": 2473,
      "橷": 2474,
      "橿": 2475,
      "權": 2476,
      "次": 2477,
      "欣": 2478,
      "欧": 2479,
      "欽": 2480,
      "歌": 2481,
      "歐": 2482,
      "止": 2483,
      "正": 2484,
      "武": 2485,
      "歯": 2486,
      "歲": 2487,
      "歴": 2488,
      "死": 2489,
      "殖": 2490,
      "段": 2491,
      "殺": 2492,
      "殼": 2493,
      "殿": 2494,
      "母": 2495,
      "每": 2496,
      "比": 2497,
      "毕": 2498,
      "毘": 2499,
      "毛": 2500,
      "氏": 2501,
      "民": 2502,
      "气": 2503,
      "気": 2504,
      "氣": 2505,
      "水": 2506,
      "永": 2507,
      "汇": 2508,
      "汉": 2509,
      "江": 2510,
      "池": 2511,
      "汤": 2512,
      "汪": 2513,
      "決": 2514,
      "沃": 2515,
      "沈": 2516,
      "沌": 2517,
      "沖": 2518,
      "沙": 2519,
      "沛": 2520,
      "沢": 2521,
      "沧": 2522,
      "沪": 2523,
      "河": 2524,
      "油": 2525,
      "治": 2526,
      "沼": 2527,
      "泉": 2528,
      "法": 2529,
      "泗": 2530,
      "泡": 2531,
      "波": 2532,
      "泰": 2533,
      "泽": 2534,
      "洋": 2535,
      "洞": 2536,
      "津": 2537,
      "洲": 2538,
      "活": 2539,
      "派": 2540,
      "流": 2541,
      "济": 2542,
      "浑": 2543,
      "浙": 2544,
      "浜": 2545,
      "浦": 2546,
      "浮": 2547,
      "海": 2548,
      "涛": 2549,
      "淞": 2550,
      "淡": 2551,
      "淮": 2552,
      "深": 2553,
      "淳": 2554,
      "淵": 2555,
      "渃": 2556,
      "清": 2557,
      "済": 2558,
      "渉": 2559,
      "渡": 2560,
      "温": 2561,
      "港": 2562,
      "游": 2563,
      "湄": 2564,
      "湖": 2565,
      "湛": 2566,
      "湯": 2567,
      "湾": 2568,
      "満": 2569,
      "源": 2570,
      "溝": 2571,
      "溥": 2572,
      "溪": 2573,
      "溫": 2574,
      "满": 2575,
      "滬": 2576,
      "滿": 2577,
      "漂": 2578,
      "漢": 2579,
      "漫": 2580,
      "潘": 2581,
      "潤": 2582,
      "潮": 2583,
      "澄": 2584,
      "澜": 2585,
      "澤": 2586,
      "澳": 2587,
      "濁": 2588,
      "濟": 2589,
      "濤": 2590,
      "濾": 2591,
      "瀋": 2592,
      "瀲": 2593,
      "灌": 2594,
      "灣": 2595,
      "火": 2596,
      "灵": 2597,
      "炊": 2598,
      "点": 2599,
      "烈": 2600,
      "烏": 2601,
      "烟": 2602,
      "無": 2603,
      "煎": 2604,
      "照": 2605,
      "熊": 2606,
      "熙": 2607,
      "熟": 2608,
      "熱": 2609,
      "燈": 2610,
      "燒": 2611,
      "燕": 2612,
      "燗": 2613,
      "爆": 2614,
      "爭": 2615,
      "爱": 2616,
      "爲": 2617,
      "爵": 2618,
      "父": 2619,
      "爷": 2620,
      "爸": 2621,
      "爽": 2622,
      "爾": 2623,
      "片": 2624,
      "版": 2625,
      "牌": 2626,
      "牟": 2627,
      "物": 2628,
      "牲": 2629,
      "特": 2630,
      "犀": 2631,
      "犧": 2632,
      "狂": 2633,
      "狗": 2634,
      "独": 2635,
      "猎": 2636,
      "猖": 2637,
      "猪": 2638,
      "猫": 2639,
      "獨": 2640,
      "玉": 2641,
      "王": 2642,
      "玖": 2643,
      "玛": 2644,
      "珍": 2645,
      "珠": 2646,
      "球": 2647,
      "理": 2648,
      "琉": 2649,
      "琴": 2650,
      "琵": 2651,
      "琶": 2652,
      "琼": 2653,
      "瑟": 2654,
      "瑣": 2655,
      "瑪": 2656,
      "瑶": 2657,
      "瓊": 2658,
      "瓜": 2659,
      "甄": 2660,
      "甘": 2661,
      "生": 2662,
      "産": 2663,
      "用": 2664,
      "甬": 2665,
      "田": 2666,
      "由": 2667,
      "甲": 2668,
      "男": 2669,
      "町": 2670,
      "画": 2671,
      "界": 2672,
      "畑": 2673,
      "留": 2674,
      "畝": 2675,
      "略": 2676,
      "畧": 2677,
      "番": 2678,
      "異": 2679,
      "疆": 2680,
      "疍": 2681,
      "疸": 2682,
      "病": 2683,
      "痘": 2684,
      "発": 2685,
      "發": 2686,
      "白": 2687,
      "百": 2688,
      "皂": 2689,
      "的": 2690,
      "皇": 2691,
      "皮": 2692,
      "监": 2693,
      "盛": 2694,
      "盟": 2695,
      "監": 2696,
      "盧": 2697,
      "目": 2698,
      "直": 2699,
      "相": 2700,
      "省": 2701,
      "県": 2702,
      "眞": 2703,
      "真": 2704,
      "眠": 2705,
      "着": 2706,
      "督": 2707,
      "睦": 2708,
      "矢": 2709,
      "知": 2710,
      "短": 2711,
      "石": 2712,
      "研": 2713,
      "砕": 2714,
      "硕": 2715,
      "碁": 2716,
      "磬": 2717,
      "磯": 2718,
      "示": 2719,
      "礼": 2720,
      "社": 2721,
      "祐": 2722,
      "祝": 2723,
      "神": 2724,
      "祥": 2725,
      "禄": 2726,
      "禅": 2727,
      "福": 2728,
      "禧": 2729,
      "禺": 2730,
      "秀": 2731,
      "私": 2732,
      "秋": 2733,
      "科": 2734,
      "秦": 2735,
      "称": 2736,
      "種": 2737,
      "稲": 2738,
      "稽": 2739,
      "穂": 2740,
      "穆": 2741,
      "穢": 2742,
      "究": 2743,
      "空": 2744,
      "窒": 2745,
      "窖": 2746,
      "窟": 2747,
      "立": 2748,
      "竜": 2749,
      "章": 2750,
      "童": 2751,
      "端": 2752,
      "竹": 2753,
      "竽": 2754,
      "竿": 2755,
      "笙": 2756,
      "笛": 2757,
      "符": 2758,
      "第": 2759,
      "等": 2760,
      "筑": 2761,
      "策": 2762,
      "筝": 2763,
      "简": 2764,
      "算": 2765,
      "管": 2766,
      "箫": 2767,
      "節": 2768,
      "篪": 2769,
      "米": 2770,
      "粉": 2771,
      "粕": 2772,
      "粤": 2773,
      "粥": 2774,
      "粵": 2775,
      "精": 2776,
      "粿": 2777,
      "糕": 2778,
      "糖": 2779,
      "系": 2780,
      "紀": 2781,
      "紅": 2782,
      "納": 2783,
      "純": 2784,
      "紙": 2785,
      "素": 2786,
      "紫": 2787,
      "細": 2788,
      "紹": 2789,
      "終": 2790,
      "絲": 2791,
      "絵": 2792,
      "經": 2793,
      "継": 2794,
      "続": 2795,
      "綠": 2796,
      "綫": 2797,
      "維": 2798,
      "綱": 2799,
      "綿": 2800,
      "総": 2801,
      "緑": 2802,
      "緒": 2803,
      "線": 2804,
      "編": 2805,
      "縄": 2806,
      "縣": 2807,
      "繊": 2808,
      "續": 2809,
      "纲": 2810,
      "线": 2811,
      "经": 2812,
      "给": 2813,
      "统": 2814,
      "绪": 2815,
      "编": 2816,
      "罗": 2817,
      "置": 2818,
      "罵": 2819,
      "羅": 2820,
      "羊": 2821,
      "美": 2822,
      "羣": 2823,
      "義": 2824,
      "羽": 2825,
      "翁": 2826,
      "習": 2827,
      "翟": 2828,
      "翠": 2829,
      "翡": 2830,
      "翰": 2831,
      "翹": 2832,
      "翼": 2833,
      "老": 2834,
      "者": 2835,
      "而": 2836,
      "耳": 2837,
      "耶": 2838,
      "聖": 2839,
      "聚": 2840,
      "聞": 2841,
      "聯": 2842,
      "聴": 2843,
      "職": 2844,
      "肃": 2845,
      "肆": 2846,
      "肇": 2847,
      "肉": 2848,
      "肥": 2849,
      "育": 2850,
      "胜": 2851,
      "胡": 2852,
      "胴": 2853,
      "胶": 2854,
      "脉": 2855,
      "腊": 2856,
      "腐": 2857,
      "腔": 2858,
      "腹": 2859,
      "臣": 2860,
      "臧": 2861,
      "自": 2862,
      "致": 2863,
      "臺": 2864,
      "與": 2865,
      "興": 2866,
      "舊": 2867,
      "舜": 2868,
      "舞": 2869,
      "航": 2870,
      "船": 2871,
      "良": 2872,
      "艱": 2873,
      "节": 2874,
      "芙": 2875,
      "芝": 2876,
      "花": 2877,
      "芸": 2878,
      "苏": 2879,
      "苑": 2880,
      "苔": 2881,
      "苦": 2882,
      "英": 2883,
      "茂": 2884,
      "范": 2885,
      "茶": 2886,
      "草": 2887,
      "荒": 2888,
      "荔": 2889,
      "荷": 2890,
      "荻": 2891,
      "莞": 2892,
      "莫": 2893,
      "菊": 2894,
      "菌": 2895,
      "菜": 2896,
      "菩": 2897,
      "華": 2898,
      "菱": 2899,
      "萅": 2900,
      "萧": 2901,
      "落": 2902,
      "葉": 2903,
      "葛": 2904,
      "董": 2905,
      "葦": 2906,
      "葵": 2907,
      "葺": 2908,
      "蒙": 2909,
      "蒜": 2910,
      "蒼": 2911,
      "蒿": 2912,
      "蓉": 2913,
      "蓋": 2914,
      "蓟": 2915,
      "蓮": 2916,
      "蔔": 2917,
      "蔭": 2918,
      "蔵": 2919,
      "薇": 2920,
      "薊": 2921,
      "薙": 2922,
      "薩": 2923,
      "藏": 2924,
      "藝": 2925,
      "藤": 2926,
      "藥": 2927,
      "藩": 2928,
      "蘆": 2929,
      "蘇": 2930,
      "蘋": 2931,
      "蘭": 2932,
      "蘿": 2933,
      "虎": 2934,
      "號": 2935,
      "虫": 2936,
      "蛇": 2937,
      "蛟": 2938,
      "蟹": 2939,
      "衆": 2940,
      "行": 2941,
      "術": 2942,
      "街": 2943,
      "衛": 2944,
      "衣": 2945,
      "补": 2946,
      "袁": 2947,
      "裕": 2948,
      "補": 2949,
      "裳": 2950,
      "製": 2951,
      "西": 2952,
      "要": 2953,
      "見": 2954,
      "視": 2955,
      "親": 2956,
      "観": 2957,
      "覺": 2958,
      "觉": 2959,
      "角": 2960,
      "解": 2961,
      "言": 2962,
      "訓": 2963,
      "記": 2964,
      "訥": 2965,
      "試": 2966,
      "誕": 2967,
      "語": 2968,
      "說": 2969,
      "説": 2970,
      "読": 2971,
      "調": 2972,
      "談": 2973,
      "論": 2974,
      "諸": 2975,
      "講": 2976,
      "謝": 2977,
      "譚": 2978,
      "議": 2979,
      "譲": 2980,
      "護": 2981,
      "讎": 2982,
      "记": 2983,
      "许": 2984,
      "译": 2985,
      "话": 2986,
      "语": 2987,
      "说": 2988,
      "诸": 2989,
      "谢": 2990,
      "谷": 2991,
      "豆": 2992,
      "豊": 2993,
      "豐": 2994,
      "豚": 2995,
      "象": 2996,
      "貓": 2997,
      "貝": 2998,
      "貞": 2999,
      "負": 3000,
      "財": 3001,
      "貴": 3002,
      "買": 3003,
      "賀": 3004,
      "資": 3005,
      "賒": 3006,
      "賛": 3007,
      "賜": 3008,
      "賢": 3009,
      "賦": 3010,
      "賽": 3011,
      "贰": 3012,
      "贵": 3013,
      "贺": 3014,
      "资": 3015,
      "赛": 3016,
      "赤": 3017,
      "走": 3018,
      "赵": 3019,
      "起": 3020,
      "超": 3021,
      "越": 3022,
      "趙": 3023,
      "足": 3024,
      "跡": 3025,
      "路": 3026,
      "踊": 3027,
      "蹄": 3028,
      "蹎": 3029,
      "身": 3030,
      "車": 3031,
      "軍": 3032,
      "転": 3033,
      "軽": 3034,
      "載": 3035,
      "輝": 3036,
      "輪": 3037,
      "轮": 3038,
      "辛": 3039,
      "辜": 3040,
      "農": 3041,
      "边": 3042,
      "辺": 3043,
      "辽": 3044,
      "迅": 3045,
      "近": 3046,
      "返": 3047,
      "进": 3048,
      "迪": 3049,
      "迷": 3050,
      "送": 3051,
      "通": 3052,
      "逝": 3053,
      "速": 3054,
      "造": 3055,
      "連": 3056,
      "進": 3057,
      "逸": 3058,
      "遂": 3059,
      "遊": 3060,
      "運": 3061,
      "過": 3062,
      "道": 3063,
      "達": 3064,
      "遗": 3065,
      "遠": 3066,
      "選": 3067,
      "遺": 3068,
      "邇": 3069,
      "邑": 3070,
      "邓": 3071,
      "那": 3072,
      "邦": 3073,
      "邪": 3074,
      "邯": 3075,
      "邵": 3076,
      "郁": 3077,
      "郎": 3078,
      "郑": 3079,
      "郡": 3080,
      "郦": 3081,
      "部": 3082,
      "郭": 3083,
      "郷": 3084,
      "都": 3085,
      "鄉": 3086,
      "鄒": 3087,
      "鄕": 3088,
      "鄧": 3089,
      "酉": 3090,
      "酌": 3091,
      "酒": 3092,
      "酛": 3093,
      "酢": 3094,
      "酸": 3095,
      "醪": 3096,
      "醸": 3097,
      "采": 3098,
      "里": 3099,
      "重": 3100,
      "野": 3101,
      "金": 3102,
      "釜": 3103,
      "鈔": 3104,
      "鈴": 3105,
      "鉄": 3106,
      "鉤": 3107,
      "銀": 3108,
      "銃": 3109,
      "銅": 3110,
      "銚": 3111,
      "銭": 3112,
      "錄": 3113,
      "錢": 3114,
      "錦": 3115,
      "錫": 3116,
      "鍋": 3117,
      "鍠": 3118,
      "鍾": 3119,
      "鎮": 3120,
      "鏡": 3121,
      "鐄": 3122,
      "鐘": 3123,
      "鐳": 3124,
      "鐵": 3125,
      "鑑": 3126,
      "鑒": 3127,
      "钟": 3128,
      "钦": 3129,
      "铁": 3130,
      "铙": 3131,
      "银": 3132,
      "铸": 3133,
      "锦": 3134,
      "長": 3135,
      "門": 3136,
      "開": 3137,
      "閒": 3138,
      "関": 3139,
      "閣": 3140,
      "關": 3141,
      "门": 3142,
      "闽": 3143,
      "阖": 3144,
      "队": 3145,
      "阪": 3146,
      "阮": 3147,
      "防": 3148,
      "阳": 3149,
      "阴": 3150,
      "阿": 3151,
      "陀": 3152,
      "际": 3153,
      "陆": 3154,
      "陈": 3155,
      "陕": 3156,
      "陛": 3157,
      "院": 3158,
      "陳": 3159,
      "陵": 3160,
      "陸": 3161,
      "険": 3162,
      "陽": 3163,
      "隊": 3164,
      "階": 3165,
      "際": 3166,
      "隠": 3167,
      "隱": 3168,
      "隹": 3169,
      "雀": 3170,
      "雁": 3171,
      "雄": 3172,
      "雅": 3173,
      "集": 3174,
      "雍": 3175,
      "雜": 3176,
      "離": 3177,
      "雨": 3178,
      "雪": 3179,
      "雫": 3180,
      "雲": 3181,
      "零": 3182,
      "雷": 3183,
      "電": 3184,
      "震": 3185,
      "霊": 3186,
      "露": 3187,
      "靈": 3188,
      "靑": 3189,
      "青": 3190,
      "静": 3191,
      "非": 3192,
      "面": 3193,
      "革": 3194,
      "靴": 3195,
      "韓": 3196,
      "音": 3197,
      "韶": 3198,
      "韻": 3199,
      "頁": 3200,
      "順": 3201,
      "領": 3202,
      "頭": 3203,
      "類": 3204,
      "顯": 3205,
      "项": 3206,
      "顺": 3207,
      "顾": 3208,
      "颖": 3209,
      "额": 3210,
      "風": 3211,
      "颱": 3212,
      "飛": 3213,
      "食": 3214,
      "飭": 3215,
      "飯": 3216,
      "飲": 3217,
      "飾": 3218,
      "餅": 3219,
      "館": 3220,
      "餬": 3221,
      "饒": 3222,
      "饺": 3223,
      "首": 3224,
      "香": 3225,
      "馬": 3226,
      "駿": 3227,
      "騎": 3228,
      "马": 3229,
      "骂": 3230,
      "骨": 3231,
      "體": 3232,
      "高": 3233,
      "髮": 3234,
      "髷": 3235,
      "鬆": 3236,
      "鬥": 3237,
      "鬼": 3238,
      "魂": 3239,
      "魏": 3240,
      "魔": 3241,
      "魚": 3242,
      "魯": 3243,
      "鮨": 3244,
      "鮮": 3245,
      "鯛": 3246,
      "鰒": 3247,
      "鰤": 3248,
      "鱼": 3249,
      "鲁": 3250,
      "鳥": 3251,
      "鳩": 3252,
      "鳳": 3253,
      "鴨": 3254,
      "鴻": 3255,
      "鶴": 3256,
      "鶿": 3257,
      "鸕": 3258,
      "鸣": 3259,
      "鹿": 3260,
      "麋": 3261,
      "麒": 3262,
      "麵": 3263,
      "麹": 3264,
      "麻": 3265,
      "麿": 3266,
      "黃": 3267,
      "黄": 3268,
      "黎": 3269,
      "黑": 3270,
      "黒": 3271,
      "點": 3272,
      "黨": 3273,
      "鼓": 3274,
      "鼠": 3275,
      "鼻": 3276,
      "齐": 3277,
      "龍": 3278,
      "龙": 3279,
      "가": 3280,
      "갈": 3281,
      "감": 3282,
      "갑": 3283,
      "강": 3284,
      "게": 3285,
      "견": 3286,
      "경": 3287,
      "계": 3288,
      "고": 3289,
      "공": 3290,
      "관": 3291,
      "괜": 3292,
      "교": 3293,
      "구": 3294,
      "국": 3295,
      "군": 3296,
      "굴": 3297,
      "궁": 3298,
      "권": 3299,
      "극": 3300,
      "글": 3301,
      "금": 3302,
      "급": 3303,
      "기": 3304,
      "김": 3305,
      "까": 3306,
      "깨": 3307,
      "나": 3308,
      "남": 3309,
      "내": 3310,
      "냉": 3311,
      "녕": 3312,
      "니": 3313,
      "다": 3314,
      "단": 3315,
      "당": 3316,
      "대": 3317,
      "덕": 3318,
      "도": 3319,
      "독": 3320,
      "돌": 3321,
      "동": 3322,
      "둑": 3323,
      "드": 3324,
      "떻": 3325,
      "띠": 3326,
      "라": 3327,
      "란": 3328,
      "랜": 3329,
      "럼": 3330,
      "레": 3331,
      "렴": 3332,
      "령": 3333,
      "례": 3334,
      "로": 3335,
      "루": 3336,
      "를": 3337,
      "리": 3338,
      "립": 3339,
      "마": 3340,
      "말": 3341,
      "맙": 3342,
      "망": 3343,
      "맹": 3344,
      "머": 3345,
      "면": 3346,
      "몬": 3347,
      "무": 3348,
      "문": 3349,
      "미": 3350,
      "민": 3351,
      "바": 3352,
      "밥": 3353,
      "방": 3354,
      "백": 3355,
      "별": 3356,
      "보": 3357,
      "복": 3358,
      "뵙": 3359,
      "부": 3360,
      "북": 3361,
      "불": 3362,
      "비": 3363,
      "빌": 3364,
      "빔": 3365,
      "뽈": 3366,
      "사": 3367,
      "산": 3368,
      "삼": 3369,
      "상": 3370,
      "서": 3371,
      "선": 3372,
      "성": 3373,
      "세": 3374,
      "송": 3375,
      "쇼": 3376,
      "수": 3377,
      "스": 3378,
      "습": 3379,
      "시": 3380,
      "실": 3381,
      "십": 3382,
      "아": 3383,
      "안": 3384,
      "양": 3385,
      "어": 3386,
      "에": 3387,
      "연": 3388,
      "영": 3389,
      "예": 3390,
      "오": 3391,
      "요": 3392,
      "우": 3393,
      "운": 3394,
      "울": 3395,
      "워": 3396,
      "원": 3397,
      "유": 3398,
      "육": 3399,
      "음": 3400,
      "읍": 3401,
      "의": 3402,
      "이": 3403,
      "인": 3404,
      "일": 3405,
      "임": 3406,
      "자": 3407,
      "작": 3408,
      "잘": 3409,
      "장": 3410,
      "재": 3411,
      "절": 3412,
      "정": 3413,
      "제": 3414,
      "조": 3415,
      "좋": 3416,
      "주": 3417,
      "준": 3418,
      "지": 3419,
      "직": 3420,
      "찮": 3421,
      "창": 3422,
      "처": 3423,
      "철": 3424,
      "청": 3425,
      "체": 3426,
      "초": 3427,
      "추": 3428,
      "측": 3429,
      "치": 3430,
      "친": 3431,
      "칠": 3432,
      "코": 3433,
      "타": 3434,
      "태": 3435,
      "택": 3436,
      "통": 3437,
      "튬": 3438,
      "트": 3439,
      "특": 3440,
      "팔": 3441,
      "퍼": 3442,
      "편": 3443,
      "평": 3444,
      "폴": 3445,
      "품": 3446,
      "프": 3447,
      "플": 3448,
      "하": 3449,
      "한": 3450,
      "할": 3451,
      "합": 3452,
      "해": 3453,
      "헤": 3454,
      "혁": 3455,
      "현": 3456,
      "협": 3457,
      "호": 3458,
      "홍": 3459,
      "화": 3460,
      "황": 3461,
      "회": 3462,
      "후": 3463,
      "희": 3464,
      "ﬁ": 3465,
      "ﬂ": 3466,
      "ﭖ": 3467,
      "ﭪ": 3468,
      "ﭺ": 3469,
      "ﮊ": 3470,
      "ﮎ": 3471,
      "ﮒ": 3472,
      "ﮪ": 3473,
      "ﯙ": 3474,
      "ﷲ": 3475,
      "ﺋ": 3476,
      "ﺍ": 3477,
      "ﺏ": 3478,
      "ﺐ": 3479,
      "ﺕ": 3480,
      "ﺝ": 3481,
      "ﺡ": 3482,
      "ﺣ": 3483,
      "ﺥ": 3484,
      "ﺩ": 3485,
      "ﺫ": 3486,
      "ﺭ": 3487,
      "ﺯ": 3488,
      "ﺱ": 3489,
      "ﺵ": 3490,
      "ﻉ": 3491,
      "ﻊ": 3492,
      "ﻋ": 3493,
      "ﻌ": 3494,
      "ﻍ": 3495,
      "ﻑ": 3496,
      "ﻕ": 3497,
      "ﻝ": 3498,
      "ﻠ": 3499,
      "ﻡ": 3500,
      "ﻥ": 3501,
      "ﻭ": 3502,
      "ﻻ": 3503,
      "ﻼ": 3504,
      "０": 3505,
      "１": 3506,
      "３": 3507,
      "４": 3508,
      "Ｑ": 3509,
      "Ｘ": 3510,
      "𐌀": 3511,
      "𐌄": 3512,
      "𐌍": 3513,
      "𐌓": 3514,
      "𐌔": 3515,
      "𐎠": 3516,
      "𐎡": 3517,
      "𐎢": 3518,
      "𐎣": 3519,
      "𐎤": 3520,
      "𐎧": 3521,
      "𐎪": 3522,
      "𐎫": 3523,
      "𐎭": 3524,
      "𐎱": 3525,
      "𐎲": 3526,
      "𐎴": 3527,
      "𐎶": 3528,
      "𐎹": 3529,
      "𐎺": 3530,
      "𐎼": 3531,
      "𐎽": 3532,
      "𐏁": 3533,
      "𐏂": 3534,
      "𐏃": 3535,
      "𐡣": 3536,
      "𐡥": 3537,
      "𐡬": 3538,
      "𐡴": 3539,
      "𐡶": 3540,
      "𐤁": 3541,
      "𐤇": 3542,
      "𐤋": 3543,
      "𐤌": 3544,
      "𐤍": 3545,
      "𐤏": 3546,
      "𐤑": 3547,
      "𐤓": 3548,
      "𒀝": 3549,
      "𒀭": 3550,
      "𒁺": 3551,
      "𒂗": 3552,
      "𒄀": 3553,
      "𒆠": 3554,
      "𒆪": 3555,
      "𒊑": 3556,
      "𒋀": 3557,
      "𒌨": 3558,
      "𓆎": 3559,
      "𝕏": 3560,
      "𠊛": 3561,
      "𠊡": 3562,
      "𠑬": 3563,
      "𠫾": 3564,
      "𡎝": 3565,
      "𡏦": 3566,
      "𡗶": 3567,
      "𡹞": 3568,
      "𡽫": 3569,
      "𢆥": 3570,
      "𢚸": 3571,
      "𢤞": 3572,
      "𢩮": 3573,
      "𢫔": 3574,
      "𣇟": 3575,
      "𣦰": 3576,
      "𣷭": 3577,
      "𤴬": 3578,
      "𤾓": 3579,
      "𥪞": 3580,
      "𥾽": 3581,
      "𦋦": 3582,
      "𦟐": 3583,
      "𧖱": 3584,
      "𧡊": 3585,
      "𨀈": 3586,
      "𨓐": 3587,
      "𨕭": 3588,
      "𨖧": 3589,
      "𨖲": 3590,
      "##e": 3591,
      "##m": 3592,
      "##n": 3593,
      "##s": 3594,
      "##c": 3595,
      "##h": 3596,
      "##a": 3597,
      "##p": 3598,
      "##o": 3599,
      "##r": 3600,
      "##d": 3601,
      "##i": 3602,
      "##g": 3603,
      "##J": 3604,
      "##O": 3605,
      "##k": 3606,
      "##l": 3607,
      "##j": 3608,
      "##u": 3609,
      "##S": 3610,
      "##t": 3611,
      "##y": 3612,
      "##b": 3613,
      "##F": 3614,
      "##K": 3615,
      "##I": 3616,
      "##M": 3617,
      "##f": 3618,
      "##1": 3619,
      "##9": 3620,
      "##8": 3621,
      "##0": 3622,
      "##2": 3623,
      "##4": 3624,
      "##H": 3625,
      "##v": 3626,
      "##D": 3627,
      "##ï": 3628,
      "##L": 3629,
      "##é": 3630,
      "##w": 3631,
      "##z": 3632,
      "##E": 3633,
      "##ë": 3634,
      "##N": 3635,
      "##á": 3636,
      "##û": 3637,
      "##è": 3638,
      "##G": 3639,
      "##à": 3640,
      "##T": 3641,
      "##7": 3642,
      "##x": 3643,
      "##5": 3644,
      "##P": 3645,
      "##R": 3646,
      "##3": 3647,
      "##6": 3648,
      "##q": 3649,
      "##р": 3650,
      "##и": 3651,
      "##в": 3652,
      "##о": 3653,
      "##л": 3654,
      "##ж": 3655,
      "##с": 3656,
      "##к": 3657,
      "##й": 3658,
      "##A": 3659,
      "##Y": 3660,
      "##C": 3661,
      "##B": 3662,
      "##Z": 3663,
      "##г": 3664,
      "##ь": 3665,
      "##е": 3666,
      "##н": 3667,
      "##а": 3668,
      "##W": 3669,
      "##š": 3670,
      "##ó": 3671,
      "##ր": 3672,
      "##ա": 3673,
      "##ք": 3674,
      "##ս": 3675,
      "##ö": 3676,
      "##V": 3677,
      "##â": 3678,
      "##ô": 3679,
      "##ð": 3680,
      "##ă": 3681,
      "##U": 3682,
      "##ü": 3683,
      "##έ": 3684,
      "##μ": 3685,
      "##ε": 3686,
      "##ν": 3687,
      "##ο": 3688,
      "##ς": 3689,
      "##-": 3690,
      "##:": 3691,
      "##Q": 3692,
      "##段": 3693,
      "##;": 3694,
      "##ä": 3695,
      "##α": 3696,
      "##τ": 3697,
      "##ά": 3698,
      "##φ": 3699,
      "##ρ": 3700,
      "##κ": 3701,
      "##X": 3702,
      "##ī": 3703,
      "##野": 3704,
      "##í": 3705,
      "##ι": 3706,
      "##ό": 3707,
      "##ц": 3708,
      "##м": 3709,
      "##ل": 3710,
      "##م": 3711,
      "##ů": 3712,
      "##)": 3713,
      "##\"": 3714,
      "##.": 3715,
      "##æ": 3716,
      "##č": 3717,
      "##ê": 3718,
      "##江": 3719,
      "##خ": 3720,
      "##ر": 3721,
      "##ش": 3722,
      "##و": 3723,
      "##ف": 3724,
      "##ž": 3725,
      "##ā": 3726,
      "##œ": 3727,
      "##帝": 3728,
      "##象": 3729,
      "##ņ": 3730,
      "##ὐ": 3731,
      "##ş": 3732,
      "##ú": 3733,
      "##σ": 3734,
      "##β": 3735,
      "##π": 3736,
      "##ζ": 3737,
      "##ί": 3738,
      "##_": 3739,
      "##ř": 3740,
      "##'": 3741,
      "##ب": 3742,
      "##ظ": 3743,
      "##ي": 3744,
      "##ň": 3745,
      "##ã": 3746,
      "##ß": 3747,
      "##ò": 3748,
      "##ʿ": 3749,
      "##λ": 3750,
      "##ξ": 3751,
      "##δ": 3752,
      "##ح": 3753,
      "##ا": 3754,
      "##ن": 3755,
      "##і": 3756,
      "##ı": 3757,
      "##ŏ": 3758,
      "##ท": 3759,
      "##ย": 3760,
      "##า": 3761,
      "##ć": 3762,
      "##ō": 3763,
      "##ñ": 3764,
      "##ø": 3765,
      "##η": 3766,
      "##υ": 3767,
      "##川": 3768,
      "##時": 3769,
      "##代": 3770,
      "##т": 3771,
      "##ý": 3772,
      "##ç": 3773,
      "##ē": 3774,
      "##!": 3775,
      "##,": 3776,
      "##я": 3777,
      "##у": 3778,
      "##î": 3779,
      "##ː": 3780,
      "##Æ": 3781,
      "##ő": 3782,
      "##б": 3783,
      "##ч": 3784,
      "##ф": 3785,
      "##д": 3786,
      "##ū": 3787,
      "##ł": 3788,
      "##ț": 3789,
      "##А": 3790,
      "##/": 3791,
      "##র": 3792,
      "##স": 3793,
      "##দ": 3794,
      "##ი": 3795,
      "##ო": 3796,
      "##რ": 3797,
      "##გ": 3798,
      "##د": 3799,
      "##ه": 3800,
      "##ר": 3801,
      "##י": 3802,
      "##פ": 3803,
      "##ה": 3804,
      "##岡": 3805,
      "##県": 3806,
      "##ҷ": 3807,
      "##ث": 3808,
      "##ą": 3809,
      "##ə": 3810,
      "##ญ": 3811,
      "##ช": 3812,
      "##น": 3813,
      "##ะ": 3814,
      "##ῶ": 3815,
      "##θ": 3816,
      "##ல": 3817,
      "##ங": 3818,
      "##க": 3819,
      "##が": 3820,
      "##ȳ": 3821,
      "##ű": 3822,
      "##仙": 3823,
      "##ˈ": 3824,
      "##ʃ": 3825,
      "##—": 3826,
      "##ύ": 3827,
      "##χ": 3828,
      "##ổ": 3829,
      "##ḥ": 3830,
      "##納": 3831,
      "##沖": 3832,
      "##ψ": 3833,
      "##ተ": 3834,
      "##藤": 3835,
      "##ש": 3836,
      "##п": 3837,
      "##海": 3838,
      "##衛": 3839,
      "##ی": 3840,
      "##ì": 3841,
      "##õ": 3842,
      "##ج": 3843,
      "##法": 3844,
      "##王": 3845,
      "##宮": 3846,
      "##職": 3847,
      "##ạ": 3848,
      "##ĳ": 3849,
      "##ğ": 3850,
      "##ω": 3851,
      "##北": 3852,
      "##文": 3853,
      "##書": 3854,
      "##店": 3855,
      "##縣": 3856,
      "##ו": 3857,
      "##ד": 3858,
      "##א": 3859,
      "##ם": 3860,
      "##ǎ": 3861,
      "##з": 3862,
      "##ș": 3863,
      "##å": 3864,
      "##ʻ": 3865,
      "##ự": 3866,
      "##ந": 3867,
      "##த": 3868,
      "##ம": 3869,
      "##ன": 3870,
      "##ю": 3871,
      "##軍": 3872,
      "##中": 3873,
      "##将": 3874,
      "##ק": 3875,
      "##מ": 3876,
      "##ת": 3877,
      "##ǫ": 3878,
      "##ư": 3879,
      "##ơ": 3880,
      "##ḷ": 3881,
      "##Ü": 3882,
      "##צ": 3883,
      "##ב": 3884,
      "##Í": 3885,
      "##ח": 3886,
      "##נ": 3887,
      "##ग": 3888,
      "##ʾ": 3889,
      "##原": 3890,
      "##豊": 3891,
      "##成": 3892,
      "##&": 3893,
      "##ż": 3894,
      "##ė": 3895,
      "##ы": 3896,
      "##ш": 3897,
      "##É": 3898,
      "##ण": 3899,
      "##र": 3900,
      "##ज": 3901,
      "##य": 3902,
      "##º": 3903,
      "##ব": 3904,
      "##ן": 3905,
      "##徳": 3906,
      "##太": 3907,
      "##子": 3908,
      "##ě": 3909,
      "##酌": 3910,
      "##さ": 3911,
      "##い": 3912,
      "##Š": 3913,
      "##門": 3914,
      "##ἰ": 3915,
      "##γ": 3916,
      "##ǒ": 3917,
      "##ह": 3918,
      "##न": 3919,
      "##ط": 3920,
      "##ق": 3921,
      "##ة": 3922,
      "##ל": 3923,
      "##כ": 3924,
      "##飯": 3925,
      "##福": 3926,
      "##Á": 3927,
      "##港": 3928,
      "##雷": 3929,
      "##部": 3930,
      "##隊": 3931,
      "##空": 3932,
      "##ù": 3933,
      "##ɛ": 3934,
      "##ɪ": 3935,
      "##ả": 3936,
      "##ή": 3937,
      "##倉": 3938,
      "##市": 3939,
      "##艱": 3940,
      "##勞": 3941,
      "##共": 3942,
      "##饒": 3943,
      "##立": 3944,
      "##戰": 3945,
      "##區": 3946,
      "##ћ": 3947,
      "##沼": 3948,
      "##س": 3949,
      "##ซ": 3950,
      "##ง": 3951,
      "##چ": 3952,
      "##ک": 3953,
      "##?": 3954,
      "##ế": 3955,
      "##ố": 3956,
      "##내": 3957,
      "##요": 3958,
      "##つ": 3959,
      "##国": 3960,
      "##督": 3961,
      "##ば": 3962,
      "##ん": 3963,
      "##ざ": 3964,
      "##อ": 3965,
      "##แ": 3966,
      "##ъ": 3967,
      "##ক": 3968,
      "##ṭ": 3969,
      "##ờ": 3970,
      "##手": 3971,
      "##ʒ": 3972,
      "##ề": 3973,
      "##雄": 3974,
      "##導": 3975,
      "##ɡ": 3976,
      "##х": 3977,
      "##崎": 3978,
      "##(": 3979,
      "##ź": 3980,
      "##ń": 3981,
      "##ጉ": 3982,
      "##ሠ": 3983,
      "##ħ": 3984,
      "##ʔ": 3985,
      "##호": 3986,
      "##대": 3987,
      "##舜": 3988,
      "##國": 3989,
      "##小": 3990,
      "##說": 3991,
      "##史": 3992,
      "##畧": 3993,
      "##治": 3994,
      "##の": 3995,
      "##森": 3996,
      "##高": 3997,
      "##尾": 3998,
      "##定": 3999,
      "##公": 4000,
      "##園": 4001,
      "##ḇ": 4002,
      "##和": 4003,
      "##清": 4004,
      "##真": 4005,
      "##寺": 4006,
      "##ј": 4007,
      "##ハ": 4008,
      "##Þ": 4009,
      "##Ϲ": 4010,
      "##Ç": 4011,
      "##済": 4012,
      "##ɔ": 4013,
      "##ʁ": 4014,
      "##ע": 4015,
      "##ὴ": 4016,
      "##ع": 4017,
      "##ȟ": 4018,
      "##ś": 4019,
      "##Я": 4020,
      "##ሳ": 4021,
      "##ይ": 4022,
      "##ያ": 4023,
      "##ስ": 4024,
      "##ɴ": 4025,
      "##ʊ": 4026,
      "##ठ": 4027,
      "##Ž": 4028,
      "##ء": 4029,
      "##济": 4030,
      "##大": 4031,
      "##学": 4032,
      "##ɑ": 4033,
      "##ǁ": 4034,
      "##ʰ": 4035,
      "##ệ": 4036,
      "##ـ": 4037,
      "##Ο": 4038,
      "##Ι": 4039,
      "##ţ": 4040,
      "##њ": 4041,
      "##ض": 4042,
      "##단": 4043,
      "##–": 4044,
      "##ܘ": 4045,
      "##ܪ": 4046,
      "##ܝ": 4047,
      "##ܐ": 4048,
      "##리": 4049,
      "##사": 4050,
      "##Ś": 4051,
      "##夏": 4052,
      "##乞": 4053,
      "##兒": 4054,
      "##ʼ": 4055,
      "##루": 4056,
      "##জ": 4057,
      "##ড": 4058,
      "##ę": 4059,
      "##শ": 4060,
      "##হ": 4061,
      "##ร": 4062,
      "##เ": 4063,
      "##ศ": 4064,
      "##ไ": 4065,
      "##Х": 4066,
      "##С": 4067,
      "##爵": 4068,
      "##歌": 4069,
      "##を": 4070,
      "##聴": 4071,
      "##け": 4072,
      "##ώ": 4073,
      "##ص": 4074,
      "##ῖ": 4075,
      "##ŋ": 4076,
      "##切": 4077,
      "##り": 4078,
      "##ル": 4079,
      "##ダ": 4080,
      "##伝": 4081,
      "##説": 4082,
      "##ῷ": 4083,
      "##ม": 4084,
      "##ก": 4085,
      "##พ": 4086,
      "##京": 4087,
      "##都": 4088,
      "##鼠": 4089,
      "##號": 4090,
      "##ḍ": 4091,
      "##ђ": 4092,
      "##Б": 4093,
      "##ʏ": 4094,
      "##化": 4095,
      "##ਜ": 4096,
      "##ਬ": 4097,
      "##ŵ": 4098,
      "##ג": 4099,
      "##家": 4100,
      "##語": 4101,
      "##華": 4102,
      "##局": 4103,
      "##噜": 4104,
      "##肉": 4105,
      "##ṇ": 4106,
      "##ῦ": 4107,
      "##ɣ": 4108,
      "##運": 4109,
      "##ĵ": 4110,
      "##ǔ": 4111,
      "##ẵ": 4112,
      "##ĝ": 4113,
      "##đ": 4114,
      "##È": 4115,
      "##þ": 4116,
      "##ʀ": 4117,
      "##면": 4118,
      "##ʽ": 4119,
      "##平": 4120,
      "##일": 4121,
      "##절": 4122,
      "##ն": 4123,
      "##պ": 4124,
      "##ե": 4125,
      "##տ": 4126,
      "##ո": 4127,
      "##ւ": 4128,
      "##թ": 4129,
      "##յ": 4130,
      "##$": 4131,
      "##青": 4132,
      "##灣": 4133,
      "##悟": 4134,
      "##ķ": 4135,
      "##ま": 4136,
      "##す": 4137,
      "##ё": 4138,
      "##ت": 4139,
      "##波": 4140,
      "##瀲": 4141,
      "##武": 4142,
      "##鸕": 4143,
      "##鶿": 4144,
      "##草": 4145,
      "##葺": 4146,
      "##不": 4147,
      "##合": 4148,
      "##尊": 4149,
      "##濟": 4150,
      "##鶴": 4151,
      "##ა": 4152,
      "##ɨ": 4153,
      "##司": 4154,
      "##𐡣": 4155,
      "##𐡬": 4156,
      "##𐡥": 4157,
      "##𐡴": 4158,
      "##ˀ": 4159,
      "##ϕ": 4160,
      "##ṣ": 4161,
      "##ὲ": 4162,
      "##條": 4163,
      "##日": 4164,
      "##報": 4165,
      "##ז": 4166,
      "##包": 4167,
      "##婁": 4168,
      "##些": 4169,
      "##訥": 4170,
      "##咁": 4171,
      "##𢤞": 4172,
      "##糕": 4173,
      "##羊": 4174,
      "##年": 4175,
      "##體": 4176,
      "##ʹ": 4177,
      "##ɹ": 4178,
      "##أ": 4179,
      "##ấ": 4180,
      "##鹿": 4181,
      "##外": 4182,
      "##说": 4183,
      "##集": 4184,
      "##ى": 4185,
      "##酒": 4186,
      "##є": 4187,
      "##ŭ": 4188,
      "##喊": 4189,
      "##德": 4190,
      "##ﬁ": 4191,
      "##ụ": 4192,
      "##タ": 4193,
      "##カ": 4194,
      "##ナ": 4195,
      "##母": 4196,
      "##峰": 4197,
      "##攸": 4198,
      "##泽": 4199,
      "##民": 4200,
      "##ئ": 4201,
      "##म": 4202,
      "##ῆ": 4203,
      "##ẽ": 4204,
      "##%": 4205,
      "##ɫ": 4206,
      "##ŗ": 4207,
      "##熟": 4208,
      "##期": 4209,
      "##南": 4210,
      "##官": 4211,
      "##话": 4212,
      "##ÿ": 4213,
      "##ἡ": 4214,
      "##마": 4215,
      "##워": 4216,
      "##ѓ": 4217,
      "##Н": 4218,
      "##И": 4219,
      "##浜": 4220,
      "##監": 4221,
      "##រ": 4222,
      "##ԥ": 4223,
      "##道": 4224,
      "##教": 4225,
      "##育": 4226,
      "##英": 4227,
      "##Đ": 4228,
      "##³": 4229,
      "##ⵣ": 4230,
      "##ⴰ": 4231,
      "##ⵢ": 4232,
      "##ⵔ": 4233,
      "##斯": 4234,
      "##げ": 4235,
      "##ښ": 4236,
      "##ز": 4237,
      "##行": 4238,
      "##谷": 4239,
      "##藏": 4240,
      "##世": 4241,
      "##凱": 4242,
      "##ക": 4243,
      "##ബ": 4244,
      "##ര": 4245,
      "##Ρ": 4246,
      "##Α": 4247,
      "##Μ": 4248,
      "##Τ": 4249,
      "##Κ": 4250,
      "##Υ": 4251,
      "##田": 4252,
      "##熊": 4253,
      "##猫": 4254,
      "##蘭": 4255,
      "##陀": 4256,
      "##始": 4257,
      "##制": 4258,
      "##エ": 4259,
      "##レ": 4260,
      "##キ": 4261,
      "##テ": 4262,
      "##究": 4263,
      "##理": 4264,
      "##新": 4265,
      "##覺": 4266,
      "##羅": 4267,
      "##溥": 4268,
      "##儀": 4269,
      "##天": 4270,
      "##狗": 4271,
      "##У": 4272,
      "##Г": 4273,
      "##ס": 4274,
      "##し": 4275,
      "##Ö": 4276,
      "##張": 4277,
      "##メ": 4278,
      "##ッ": 4279,
      "##セ": 4280,
      "##ɐ": 4281,
      "##ɾ": 4282,
      "##州": 4283,
      "##Ó": 4284,
      "##禧": 4285,
      "##э": 4286,
      "##皇": 4287,
      "##后": 4288,
      "##殖": 4289,
      "##地": 4290,
      "##ล": 4291,
      "##ำ": 4292,
      "##Œ": 4293,
      "##所": 4294,
      "##ṛ": 4295,
      "##亜": 4296,
      "##リ": 4297,
      "##シ": 4298,
      "##モ": 4299,
      "##フ": 4300,
      "##ラ": 4301,
      "##ン": 4302,
      "##チ": 4303,
      "##ェ": 4304,
      "##ス": 4305,
      "##コ": 4306,
      "##喜": 4307,
      "##広": 4308,
      "##団": 4309,
      "##沢": 4310,
      "##ذ": 4311,
      "##本": 4312,
      "##紀": 4313,
      "##Р": 4314,
      "##ĩ": 4315,
      "##ດ": 4316,
      "##ມ": 4317,
      "##ໄ": 4318,
      "##ຊ": 4319,
      "##方": 4320,
      "##ও": 4321,
      "##য": 4322,
      "##গ": 4323,
      "##ঞ": 4324,
      "##ὸ": 4325,
      "##ァ": 4326,
      "##ミ": 4327,
      "##प": 4328,
      "##ल": 4329,
      "##Ş": 4330,
      "##言": 4331,
      "##え": 4332,
      "##る": 4333,
      "##酸": 4334,
      "##ト": 4335,
      "##ウ": 4336,
      "##ム": 4337,
      "##返": 4338,
      "##点": 4339,
      "##ს": 4340,
      "##ე": 4341,
      "##ბ": 4342,
      "##ӊ": 4343,
      "##ṓ": 4344,
      "##無": 4345,
      "##剣": 4346,
      "##დ": 4347,
      "##ვ": 4348,
      "##ნ": 4349,
      "##შ": 4350,
      "##ლ": 4351,
      "##身": 4352,
      "##դ": 4353,
      "##ի": 4354,
      "##վ": 4355,
      "##𒀝": 4356,
      "##𒆪": 4357,
      "##𒁺": 4358,
      "##𒌨": 4359,
      "##𒊑": 4360,
      "##𒋀": 4361,
      "##ĕ": 4362,
      "##덕": 4363,
      "##원": 4364,
      "##ө": 4365,
      "##作": 4366,
      "##俄": 4367,
      "##战": 4368,
      "##争": 4369,
      "##ہ": 4370,
      "##ṗ": 4371,
      "##城": 4372,
      "##ậ": 4373,
      "##び": 4374,
      "##と": 4375,
      "##翼": 4376,
      "##勇": 4377,
      "##者": 4378,
      "##た": 4379,
      "##ち": 4380,
      "##な": 4381,
      "##男": 4382,
      "##ծ": 4383,
      "##陽": 4384,
      "##工": 4385,
      "##業": 4386,
      "##մ": 4387,
      "##չ": 4388,
      "##भ": 4389,
      "##त": 4390,
      "##ዩ": 4391,
      "##መ": 4392,
      "##າ": 4393,
      "##ປ": 4394,
      "##ສ": 4395,
      "##ກ": 4396,
      "##ワ": 4397,
      "##ニ": 4398,
      "##ャ": 4399,
      "##兵": 4400,
      "##風": 4401,
      "##ḫ": 4402,
      "##ត": 4403,
      "##ك": 4404,
      "##غ": 4405,
      "##ர": 4406,
      "##Λ": 4407,
      "##介": 4408,
      "##亭": 4409,
      "##杂": 4410,
      "##二": 4411,
      "##令": 4412,
      "##苑": 4413,
      "##ঙ": 4414,
      "##ম": 4415,
      "##ট": 4416,
      "##ồ": 4417,
      "##Î": 4418,
      "##ც": 4419,
      "##უ": 4420,
      "##ữ": 4421,
      "##Ű": 4422,
      "##ប": 4423,
      "##熙": 4424,
      "##慶": 4425,
      "##ະ": 4426,
      "##ນ": 4427,
      "##ລ": 4428,
      "##ວ": 4429,
      "##橋": 4430,
      "##ネ": 4431,
      "##十": 4432,
      "##四": 4433,
      "##孝": 4434,
      "##圖": 4435,
      "##င": 4436,
      "##人": 4437,
      "##気": 4438,
      "##会": 4439,
      "##澤": 4440,
      "##山": 4441,
      "##死": 4442,
      "##ὶ": 4443,
      "##қ": 4444,
      "##Η": 4445,
      "##Ν": 4446,
      "##少": 4447,
      "##奇": 4448,
      "##庫": 4449,
      "##番": 4450,
      "##件": 4451,
      "##事": 4452,
      "##ℓ": 4453,
      "##ὰ": 4454,
      "##क": 4455,
      "##监": 4456,
      "##内": 4457,
      "##界": 4458,
      "##名": 4459,
      "##劇": 4460,
      "##場": 4461,
      "##½": 4462,
      "##ข": 4463,
      "##ษ": 4464,
      "##세": 4465,
      "##臣": 4466,
      "##食": 4467,
      "##Ø": 4468,
      "##ϊ": 4469,
      "##К": 4470,
      "##音": 4471,
      "##辺": 4472,
      "##ǣ": 4473,
      "##勝": 4474,
      "##Т": 4475,
      "##ḗ": 4476,
      "##万": 4477,
      "##円": 4478,
      "##ἴ": 4479,
      "##Σ": 4480,
      "##门": 4481,
      "##ܚ": 4482,
      "##ܢ": 4483,
      "##愛": 4484,
      "##農": 4485,
      "##賒": 4486,
      "##𢫔": 4487,
      "##曲": 4488,
      "##레": 4489,
      "##이": 4490,
      "##어": 4491,
      "##द": 4492,
      "##美": 4493,
      "##ܨ": 4494,
      "##ܒ": 4495,
      "##凯": 4496,
      "##綠": 4497,
      "##黨": 4498,
      "##ฟ": 4499,
      "##侯": 4500,
      "##ớ": 4501,
      "##𣇟": 4502,
      "##鐄": 4503,
      "##沛": 4504,
      "##ắ": 4505,
      "##ธ": 4506,
      "##ด": 4507,
      "##産": 4508,
      "##自": 4509,
      "##動": 4510,
      "##車": 4511,
      "##株": 4512,
      "##式": 4513,
      "##社": 4514,
      "##კ": 4515,
      "##ộ": 4516,
      "##区": 4517,
      "##ܠ": 4518,
      "##ܟ": 4519,
      "##水": 4520,
      "##จ": 4521,
      "##บ": 4522,
      "##ọ": 4523,
      "##ճ": 4524,
      "##流": 4525,
      "##ら": 4526,
      "##學": 4527,
      "##良": 4528,
      "##ዜ": 4529,
      "##ዊ": 4530,
      "##작": 4531,
      "##魔": 4532,
      "##冒": 4533,
      "##険": 4534,
      "##バ": 4535,
      "##ー": 4536,
      "##宇": 4537,
      "##宙": 4538,
      "##旅": 4539,
      "##上": 4540,
      "##春": 4541,
      "##樹": 4542,
      "##ҳ": 4543,
      "##ҭ": 4544,
      "##ር": 4545,
      "##ማ": 4546,
      "##ア": 4547,
      "##マ": 4548,
      "##惑": 4549,
      "##星": 4550,
      "##ũ": 4551,
      "##児": 4552,
      "##島": 4553,
      "##頭": 4554,
      "##ǐ": 4555,
      "##村": 4556,
      "##光": 4557,
      "##İ": 4558,
      "##ຕ": 4559,
      "##𐎼": 4560,
      "##𐎫": 4561,
      "##𐎧": 4562,
      "##𐏁": 4563,
      "##𐏂": 4564,
      "##𐎠": 4565,
      "##맹": 4566,
      "##망": 4567,
      "##მ": 4568,
      "##っ": 4569,
      "##て": 4570,
      "##下": 4571,
      "##µ": 4572,
      "##遠": 4573,
      "##ך": 4574,
      "##ὖ": 4575,
      "##荷": 4576,
      "##林": 4577,
      "##譚": 4578,
      "##郎": 4579,
      "##կ": 4580,
      "##ტ": 4581,
      "##极": 4582,
      "##ễ": 4583,
      "##श": 4584,
      "##鳩": 4585,
      "##ļ": 4586,
      "##ט": 4587,
      "##は": 4588,
      "##ヒ": 4589,
      "##飲": 4590,
      "##み": 4591,
      "##Е": 4592,
      "##Д": 4593,
      "##Л": 4594,
      "##Ы": 4595,
      "##曼": 4596,
      "##ሁ": 4597,
      "##ዳ": 4598,
      "##參": 4599,
      "##崴": 4600,
      "##千": 4601,
      "##尋": 4602,
      "##神": 4603,
      "##隠": 4604,
      "##薇": 4605,
      "##瑪": 4606,
      "##使": 4607,
      "##Ú": 4608,
      "##쇼": 4609,
      "##체": 4610,
      "##藝": 4611,
      "##術": 4612,
      "##ܬ": 4613,
      "##ต": 4614,
      "##ұ": 4615,
      "##イ": 4616,
      "##ド": 4617,
      "##干": 4618,
      "##渉": 4619,
      "##転": 4620,
      "##虫": 4621,
      "##ボ": 4622,
      "##ロ": 4623,
      "##Δ": 4624,
      "##스": 4625,
      "##까": 4626,
      "##ṯ": 4627,
      "##ぽ": 4628,
      "##絵": 4629,
      "##ய": 4630,
      "##庁": 4631,
      "##恐": 4632,
      "##竜": 4633,
      "##记": 4634,
      "##ǧ": 4635,
      "##О": 4636,
      "##Ш": 4637,
      "##语": 4638,
      "##ܫ": 4639,
      "##ܡ": 4640,
      "##花": 4641,
      "##之": 4642,
      "##開": 4643,
      "##耶": 4644,
      "##姫": 4645,
      "##щ": 4646,
      "##ṵ": 4647,
      "##ন": 4648,
      "##雀": 4649,
      "##ʦ": 4650,
      "##ʋ": 4651,
      "##ử": 4652,
      "##ẓ": 4653,
      "##黑": 4654,
      "##虎": 4655,
      "##교": 4656,
      "##ľ": 4657,
      "##粉": 4658,
      "##ሎ": 4659,
      "##ኔ": 4660,
      "##ል": 4661,
      "##ŝ": 4662,
      "##葉": 4663,
      "##街": 4664,
      "##号": 4665,
      "##引": 4666,
      "##ケ": 4667,
      "##ည": 4668,
      "##ပ": 4669,
      "##သ": 4670,
      "##ယ": 4671,
      "##ရ": 4672,
      "##絲": 4673,
      "##ƨ": 4674,
      "##由": 4675,
      "##ই": 4676,
      "##ল": 4677,
      "##心": 4678,
      "##¹": 4679,
      "##ų": 4680,
      "##Ä": 4681,
      "##通": 4682,
      "##鑒": 4683,
      "##ӣ": 4684,
      "##腹": 4685,
      "##樞": 4686,
      "##雍": 4687,
      "##淮": 4688,
      "##奉": 4689,
      "##宜": 4690,
      "##起": 4691,
      "##魚": 4692,
      "##生": 4693,
      "##芸": 4694,
      "##В": 4695,
      "##Й": 4696,
      "##ポ": 4697,
      "##ョ": 4698,
      "##七": 4699,
      "##条": 4700,
      "##憲": 4701,
      "##ក": 4702,
      "##極": 4703,
      "##体": 4704,
      "##邪": 4705,
      "##那": 4706,
      "##岐": 4707,
      "##命": 4708,
      "##ហ": 4709,
      "##ម": 4710,
      "##ន": 4711,
      "##馬": 4712,
      "##ኰ": 4713,
      "##ን": 4714,
      "##ส": 4715,
      "##인": 4716,
      "##돌": 4717,
      "##안": 4718,
      "##해": 4719,
      "##ภ": 4720,
      "##ἱ": 4721,
      "##Ε": 4722,
      "##医": 4723,
      "##科": 4724,
      "##歯": 4725,
      "##ግ": 4726,
      "##வ": 4727,
      "##ዚ": 4728,
      "##አ": 4729,
      "##ብ": 4730,
      "##ሔ": 4731,
      "##わ": 4732,
      "##ぐ": 4733,
      "##ட": 4734,
      "##례": 4735,
      "##합": 4736,
      "##니": 4737,
      "##다": 4738,
      "##编": 4739,
      "##宝": 4740,
      "##片": 4741,
      "##ச": 4742,
      "##犧": 4743,
      "##牲": 4744,
      "##鮮": 4745,
      "##審": 4746,
      "##欣": 4747,
      "##ว": 4748,
      "##ฎ": 4749,
      "##𡽫": 4750,
      "##越": 4751,
      "##𠊡": 4752,
      "##𥾽": 4753,
      "##寧": 4754,
      "##ⴱ": 4755,
      "##ⴷ": 4756,
      "##ﻭ": 4757,
      "##ỉ": 4758,
      "##旦": 4759,
      "##的": 4760,
      "##庭": 4761,
      "##義": 4762,
      "##Ĕ": 4763,
      "##ณ": 4764,
      "##ぬ": 4765,
      "##充": 4766,
      "##բ": 4767,
      "##ど": 4768,
      "##も": 4769,
      "##踊": 4770,
      "##媛": 4771,
      "##か": 4772,
      "##夫": 4773,
      "##ビ": 4774,
      "##露": 4775,
      "##戦": 4776,
      "##白": 4777,
      "##성": 4778,
      "##省": 4779,
      "##县": 4780,
      "##և": 4781,
      "##弟": 4782,
      "##明": 4783,
      "##燈": 4784,
      "##ห": 4785,
      "##ク": 4786,
      "##木": 4787,
      "##շ": 4788,
      "##ℎ": 4789,
      "##洲": 4790,
      "##ị": 4791,
      "##縄": 4792,
      "##თ": 4793,
      "##館": 4794,
      "##ᾶ": 4795,
      "##橘": 4796,
      "##ब": 4797,
      "##ἶ": 4798,
      "##ฤ": 4799,
      "##篪": 4800,
      "##ә": 4801,
      "##翰": 4802,
      "##唐": 4803,
      "##佐": 4804,
      "##Ω": 4805,
      "##ᾱ": 4806,
      "##記": 4807,
      "##љ": 4808,
      "##奈": 4809,
      "##月": 4810,
      "##町": 4811,
      "##ṃ": 4812,
      "##ノ": 4813,
      "##見": 4814,
      "##ジ": 4815,
      "##Ż": 4816,
      "##信": 4817,
      "##ላ": 4818,
      "##ሴ": 4819,
      "##庙": 4820,
      "##튬": 4821,
      "##威": 4822,
      "##ध": 4823,
      "##ພ": 4824,
      "##ບ": 4825,
      "##ť": 4826,
      "##皂": 4827,
      "##ত": 4828,
      "##閣": 4829,
      "##き": 4830,
      "##փ": 4831,
      "##ষ": 4832,
      "##Ï": 4833,
      "##沧": 4834,
      "##别": 4835,
      "##政": 4836,
      "##둑": 4837,
      "##ණ": 4838,
      "##ඩ": 4839,
      "##ර": 4840,
      "##න": 4841,
      "##ය": 4842,
      "##ක": 4843,
      "##农": 4844,
      "##党": 4845,
      "##菱": 4846,
      "##商": 4847,
      "##達": 4848,
      "##ʂ": 4849,
      "##Ю": 4850,
      "##ġ": 4851,
      "##一": 4852,
      "##秀": 4853,
      "##پ": 4854,
      "##蔔": 4855,
      "##ף": 4856,
      "##薙": 4857,
      "##盟": 4858,
      "##く": 4859,
      "##だ": 4860,
      "##渡": 4861,
      "##ợ": 4862,
      "##智": 4863,
      "##회": 4864,
      "##ֆ": 4865,
      "##լ": 4866,
      "##À": 4867,
      "##ជ": 4868,
      "##ណ": 4869,
      "##ច": 4870,
      "##ព": 4871,
      "##感": 4872,
      "##ң": 4873,
      "##宣": 4874,
      "##ղ": 4875,
      "##磯": 4876,
      "##의": 4877,
      "##开": 4878,
      "##慧": 4879,
      "##ḩ": 4880,
      "##ܛ": 4881,
      "##Ɔ": 4882,
      "##ە": 4883,
      "##ʲ": 4884,
      "##利": 4885,
      "##棣": 4886,
      "##字": 4887,
      "##প": 4888,
      "##夕": 4889,
      "##拾": 4890,
      "##會": 4891,
      "##ค": 4892,
      "##ት": 4893,
      "##ዮ": 4894,
      "##ጵ": 4895,
      "##ĭ": 4896,
      "##ष": 4897,
      "##ặ": 4898,
      "##إ": 4899,
      "##Ь": 4900,
      "##仮": 4901,
      "##念": 4902,
      "##밥": 4903,
      "##ベ": 4904,
      "##飾": 4905,
      "##ủ": 4906,
      "##ង": 4907,
      "##ɦ": 4908,
      "##ṟ": 4909,
      "##ဆ": 4910,
      "##န": 4911,
      "##စ": 4912,
      "##က": 4913,
      "##津": 4914,
      "##仏": 4915,
      "##殿": 4916,
      "##叢": 4917,
      "##画": 4918,
      "##柝": 4919,
      "##声": 4920,
      "##浮": 4921,
      "##ď": 4922,
      "##陛": 4923,
      "##简": 4924,
      "##疆": 4925,
      "##粿": 4926,
      "##Ф": 4927,
      "##先": 4928,
      "##အ": 4929,
      "##ခ": 4930,
      "##ဒ": 4931,
      "##主": 4932,
      "##ฆ": 4933,
      "##賛": 4934,
      "##蓋": 4935,
      "##角": 4936,
      "##出": 4937,
      "##版": 4938,
      "##ὺ": 4939,
      "##埠": 4940,
      "##З": 4941,
      "##畝": 4942,
      "##孫": 4943,
      "##淳": 4944,
      "##চ": 4945,
      "##မ": 4946,
      "##パ": 4947,
      "##三": 4948,
      "##オ": 4949,
      "##Ë": 4950,
      "##ฒ": 4951,
      "##ອ": 4952,
      "##ງ": 4953,
      "##ແ": 4954,
      "##維": 4955,
      "##龙": 4956,
      "##በ": 4957,
      "##ባ": 4958,
      "##溪": 4959,
      "##Ō": 4960,
      "##Ī": 4961,
      "##ừ": 4962,
      "##欽": 4963,
      "##란": 4964,
      "##드": 4965,
      "##捌": 4966,
      "##豐": 4967,
      "##爆": 4968,
      "##終": 4969,
      "##동": 4970,
      "##자": 4971,
      "##구": 4972,
      "##²": 4973,
      "##ள": 4974,
      "##安": 4975,
      "##宗": 4976,
      "##게": 4977,
      "##습": 4978,
      "##房": 4979,
      "##副": 4980,
      "##長": 4981,
      "##ү": 4982,
      "##取": 4983,
      "##汇": 4984,
      "##ป": 4985,
      "##ỗ": 4986,
      "##ね": 4987,
      "##じ": 4988,
      "##巻": 4989,
      "##ї": 4990,
      "##ழ": 4991,
      "##ई": 4992,
      "##ŧ": 4993,
      "##ẖ": 4994,
      "##蘇": 4995,
      "##散": 4996,
      "##현": 4997,
      "##궁": 4998,
      "##무": 4999,
      "##관": 5000,
      "##読": 5001,
      "##助": 5002,
      "##선": 5003,
      "##戸": 5004,
      "##噛": 5005,
      "##機": 5006,
      "##团": 5007,
      "##聚": 5008,
      "##로": 5009,
      "##트": 5010,
      "##ល": 5011,
      "##康": 5012,
      "##ず": 5013,
      "##お": 5014,
      "##寬": 5015,
      "##女": 5016,
      "##宅": 5017,
      "##急": 5018,
      "##便": 5019,
      "##昌": 5020,
      "##기": 5021,
      "##ἵ": 5022,
      "##仕": 5023,
      "##龍": 5024,
      "##វ": 5025,
      "##យ": 5026,
      "##च": 5027,
      "##व": 5028,
      "##金": 5029,
      "##汉": 5030,
      "##Č": 5031,
      "##怀": 5032,
      "##仁": 5033,
      "##ˢ": 5034,
      "##幸": 5035,
      "##庆": 5036,
      "##ὠ": 5037,
      "##紫": 5038,
      "##阳": 5039,
      "##ȉ": 5040,
      "##ʷ": 5041,
      "##स": 5042,
      "##魯": 5043,
      "##П": 5044,
      "##泰": 5045,
      "##ⵉ": 5046,
      "##ⵟ": 5047,
      "##ⵡ": 5048,
      "##ⵏ": 5049,
      "##گ": 5050,
      "##ფ": 5051,
      "##ㄨ": 5052,
      "##ㄢ": 5053,
      "##俊": 5054,
      "##六": 5055,
      "##峴": 5056,
      "##我": 5057,
      "##老": 5058,
      "##爷": 5059,
      "##买": 5060,
      "##鱼": 5061,
      "##竿": 5062,
      "##委": 5063,
      "##員": 5064,
      "##ῃ": 5065,
      "##夜": 5066,
      "##军": 5067,
      "##蓉": 5068,
      "##蟹": 5069,
      "##照": 5070,
      "##經": 5071,
      "##𐎶": 5072,
      "##𐎴": 5073,
      "##𐎡": 5074,
      "##𐎹": 5075,
      "##西": 5076,
      "##ฅ": 5077,
      "##ὗ": 5078,
      "##遗": 5079,
      "##补": 5080,
      "##ḏ": 5081,
      "##際": 5082,
      "##基": 5083,
      "##ɕ": 5084,
      "##輪": 5085,
      "##茂": 5086,
      "##丘": 5087,
      "##陵": 5088,
      "##ப": 5089,
      "##Γ": 5090,
      "##爸": 5091,
      "##幌": 5092,
      "##ⴽ": 5093,
      "##ⵎ": 5094,
      "##Ā": 5095,
      "##蔭": 5096,
      "##權": 5097,
      "##戲": 5098,
      "##태": 5099,
      "##遺": 5100,
      "##ຽ": 5101,
      "##ທ": 5102,
      "##廉": 5103,
      "##迅": 5104,
      "##選": 5105,
      "##ស": 5106,
      "##ដ": 5107,
      "##ឋ": 5108,
      "##խ": 5109,
      "##զ": 5110,
      "##도": 5111,
      "##ṅ": 5112,
      "##ヌ": 5113,
      "##ண": 5114,
      "##媽": 5115,
      "##罵": 5116,
      "##麻": 5117,
      "##嗎": 5118,
      "##ἠ": 5119,
      "##八": 5120,
      "##粥": 5121,
      "##呂": 5122,
      "##彦": 5123,
      "##គ": 5124,
      "##ধ": 5125,
      "##ѣ": 5126,
      "##醸": 5127,
      "##婴": 5128,
      "##미": 5129,
      "##曾": 5130,
      "##多": 5131,
      "##毘": 5132,
      "##売": 5133,
      "##𒂗": 5134,
      "##𒄀": 5135,
      "##雪": 5136,
      "##衣": 5137,
      "##琴": 5138,
      "##ⲓ": 5139,
      "##ⲗ": 5140,
      "##ⲡ": 5141,
      "##ⲟ": 5142,
      "##ⲥ": 5143,
      "##窟": 5144,
      "##ɒ": 5145,
      "##ὔ": 5146,
      "##ȝ": 5147,
      "##령": 5148,
      "##冠": 5149,
      "##湾": 5150,
      "##九": 5151,
      "##里": 5152,
      "##派": 5153,
      "##⅓": 5154,
      "##漂": 5155,
      "##한": 5156,
      "##민": 5157,
      "##국": 5158,
      "##砕": 5159,
      "##书": 5160,
      "##特": 5161,
      "##別": 5162,
      "##攻": 5163,
      "##撃": 5164,
      "##放": 5165,
      "##报": 5166,
      "##ΐ": 5167,
      "##氏": 5168,
      "##プ": 5169,
      "##臧": 5170,
      "##硕": 5171,
      "##腐": 5172,
      "##བ": 5173,
      "##ག": 5174,
      "##ར": 5175,
      "##ལ": 5176,
      "##ཁ": 5177,
      "##邑": 5178,
      "##장": 5179,
      "##ϋ": 5180,
      "##ገ": 5181,
      "##ሥ": 5182,
      "##ถ": 5183,
      "##井": 5184,
      "##ⲁ": 5185,
      "##ⲇ": 5186,
      "##ⲉ": 5187,
      "##瓊": 5188,
      "##杵": 5189,
      "##宕": 5190,
      "##分": 5191,
      "##逝": 5192,
      "##陸": 5193,
      "##製": 5194,
      "##技": 5195,
      "##ˌ": 5196,
      "##乙": 5197,
      "##丫": 5198,
      "##ᚢ": 5199,
      "##ᚦ": 5200,
      "##ᚭ": 5201,
      "##ᚱ": 5202,
      "##ᚴ": 5203,
      "##ᚽ": 5204,
      "##ᚿ": 5205,
      "##ᛁ": 5206,
      "##ᛆ": 5207,
      "##ᛌ": 5208,
      "##ᛐ": 5209,
      "##ᛓ": 5210,
      "##ᛙ": 5211,
      "##ᛚ": 5212,
      "##ᛧ": 5213,
      "##ফ": 5214,
      "##鍾": 5215,
      "##摩": 5216,
      "##線": 5217,
      "##ſ": 5218,
      "##鉤": 5219,
      "##沈": 5220,
      "##ҍ": 5221,
      "##ⵊ": 5222,
      "##울": 5223,
      "##ผ": 5224,
      "##觉": 5225,
      "##罗": 5226,
      "##仪": 5227,
      "##早": 5228,
      "##宰": 5229,
      "##府": 5230,
      "##潮": 5231,
      "##ӑ": 5232,
      "##ズ": 5233,
      "##ڵ": 5234,
      "##ฮ": 5235,
      "##苔": 5236,
      "##ץ": 5237,
      "##ම": 5238,
      "##ත": 5239,
      "##ග": 5240,
      "##洞": 5241,
      "##ӕ": 5242,
      "##朗": 5243,
      "##ɲ": 5244,
      "##ܣ": 5245,
      "##ܩ": 5246,
      "##Å": 5247,
      "##宁": 5248,
      "##瑟": 5249,
      "##電": 5250,
      "##視": 5251,
      "##台": 5252,
      "##刊": 5253,
      "##ၵ": 5254,
      "##တ": 5255,
      "##垣": 5256,
      "##宸": 5257,
      "##ⵖ": 5258,
      "##ⴼ": 5259,
      "##ⵜ": 5260,
      "##€": 5261,
      "##加": 5262,
      "##坡": 5263,
      "##铁": 5264,
      "##系": 5265,
      "##统": 5266,
      "##ᐊ": 5267,
      "##ᑕ": 5268,
      "##ᓐ": 5269,
      "##べ": 5270,
      "##ḕ": 5271,
      "##素": 5272,
      "##桂": 5273,
      "##복": 5274,
      "##博": 5275,
      "##ჩ": 5276,
      "##ძ": 5277,
      "##蒙": 5278,
      "##洋": 5279,
      "##ट": 5280,
      "##榮": 5281,
      "##𡏦": 5282,
      "##殼": 5283,
      "##讎": 5284,
      "##河": 5285,
      "##唱": 5286,
      "##Ǫ": 5287,
      "##古": 5288,
      "##屋": 5289,
      "##百": 5290,
      "##せ": 5291,
      "##鍠": 5292,
      "##東": 5293,
      "##𐤓": 5294,
      "##全": 5295,
      "##ὼ": 5296,
      "##ầ": 5297,
      "##银": 5298,
      "##歲": 5299,
      "##錢": 5300,
      "##ې": 5301,
      "##ằ": 5302,
      "##ⵍ": 5303,
      "##ⴻ": 5304,
      "##ﻠ": 5305,
      "##ﺐ": 5306,
      "##徨": 5307,
      "##ഥ": 5308,
      "##ള": 5309,
      "##れ": 5310,
      "##何": 5311,
      "##で": 5312,
      "##卐": 5313,
      "##卍": 5314,
      "##ῥ": 5315,
      "##師": 5316,
      "##霊": 5317,
      "##異": 5318,
      "##更": 5319,
      "##列": 5320,
      "##थ": 5321,
      "##ჭ": 5322,
      "##ජ": 5323,
      "##ވ": 5324,
      "##ހ": 5325,
      "##ރ": 5326,
      "##އ": 5327,
      "##ޖ": 5328,
      "##ގ": 5329,
      "##味": 5330,
      "##土": 5331,
      "##추": 5332,
      "##郷": 5333,
      "##雨": 5334,
      "##ધ": 5335,
      "##Π": 5336,
      "##禺": 5337,
      "##ຂ": 5338,
      "##ድ": 5339,
      "##М": 5340,
      "##ເ": 5341,
      "##亀": 5342,
      "##デ": 5343,
      "##ィ": 5344,
      "##旧": 5345,
      "##ツ": 5346,
      "##ʺ": 5347,
      "##輝": 5348,
      "##湖": 5349,
      "##ཡ": 5350,
      "##혁": 5351,
      "##Ж": 5352,
      "##ứ": 5353,
      "##东": 5354,
      "##恩": 5355,
      "##来": 5356,
      "##弼": 5357,
      "##紙": 5358,
      "##致": 5359,
      "##જ": 5360,
      "##ર": 5361,
      "##ત": 5362,
      "##創": 5363,
      "##末": 5364,
      "##հ": 5365,
      "##ブ": 5366,
      "##迷": 5367,
      "##丸": 5368,
      "##ɚ": 5369,
      "##է": 5370,
      "##伟": 5371,
      "##悯": 5372,
      "##固": 5373,
      "##伦": 5374,
      "##う": 5375,
      "##ぶ": 5376,
      "##һ": 5377,
      "##ỹ": 5378,
      "##路": 5379,
      "##餬": 5380,
      "##불": 5381,
      "##굴": 5382,
      "##击": 5383,
      "##队": 5384,
      "##鸣": 5385,
      "##尉": 5386,
      "##候": 5387,
      "##補": 5388,
      "##ṁ": 5389,
      "##備": 5390,
      "##落": 5391,
      "##방": 5392,
      "##타": 5393,
      "##랜": 5394,
      "##尔": 5395,
      "##齐": 5396,
      "##重": 5397,
      "##巧": 5398,
      "##板": 5399,
      "##幡": 5400,
      "##ʎ": 5401,
      "##麿": 5402,
      "##よ": 5403,
      "##ひ": 5404,
      "##こ": 5405,
      "##漫": 5406,
      "##મ": 5407,
      "##ચ": 5408,
      "##દ": 5409,
      "##岳": 5410,
      "##造": 5411,
      "##ღ": 5412,
      "##貞": 5413,
      "##拓": 5414,
      "##џ": 5415,
      "##수": 5416,
      "##実": 5417,
      "##そ": 5418,
      "##ŷ": 5419,
      "##蹄": 5420,
      "##精": 5421,
      "##卫": 5422,
      "##权": 5423,
      "##ỳ": 5424,
      "##根": 5425,
      "##ራ": 5426,
      "##ኤ": 5427,
      "##𐎺": 5428,
      "##𐎢": 5429,
      "##雲": 5430,
      "##翹": 5431,
      "##𐤏": 5432,
      "##𐤋": 5433,
      "##Ӏ": 5434,
      "##樓": 5435,
      "##鼓": 5436,
      "##称": 5437,
      "##午": 5438,
      "##節": 5439,
      "##ʑ": 5440,
      "##ɬ": 5441,
      "##忠": 5442,
      "##蔵": 5443,
      "##ヨ": 5444,
      "##ể": 5445,
      "##纲": 5446,
      "##要": 5447,
      "##正": 5448,
      "##底": 5449,
      "##鬼": 5450,
      "##岩": 5451,
      "##仲": 5452,
      "##吉": 5453,
      "##ˑ": 5454,
      "##ھ": 5455,
      "##祥": 5456,
      "##志": 5457,
      "##ਰ": 5458,
      "##周": 5459,
      "##口": 5460,
      "##项": 5461,
      "##ๅ": 5462,
      "##静": 5463,
      "##ց": 5464,
      "##ῳ": 5465,
      "##昭": 5466,
      "##Ľ": 5467,
      "##賢": 5468,
      "##松": 5469,
      "##鏡": 5470,
      "##进": 5471,
      "##嶽": 5472,
      "##景": 5473,
      "##ټ": 5474,
      "##己": 5475,
      "##하": 5476,
      "##철": 5477,
      "##用": 5478,
      "##漢": 5479,
      "##ڭ": 5480,
      "##室": 5481,
      "##𨖧": 5482,
      "##𦋦": 5483,
      "##沙": 5484,
      "##發": 5485,
      "##비": 5486,
      "##私": 5487,
      "##ペ": 5488,
      "##හ": 5489,
      "##ල": 5490,
      "##甲": 5491,
      "##斉": 5492,
      "##ळ": 5493,
      "##డ": 5494,
      "##మ": 5495,
      "##న": 5496,
      "##功": 5497,
      "##当": 5498,
      "##ἷ": 5499,
      "##ᾰ": 5500,
      "##緒": 5501,
      "##글": 5502,
      "##総": 5503,
      "##琶": 5504,
      "##ད": 5505,
      "##ས": 5506,
      "##球": 5507,
      "##諸": 5508,
      "##Ă": 5509,
      "##建": 5510,
      "##將": 5511,
      "##五": 5512,
      "##恋": 5513,
      "##菜": 5514,
      "##ṕ": 5515,
      "##岬": 5516,
      "##扁": 5517,
      "##Φ": 5518,
      "##近": 5519,
      "##顺": 5520,
      "##後": 5521,
      "##關": 5522,
      "##ဖ": 5523,
      "##몬": 5524,
      "##ĉ": 5525,
      "##誕": 5526,
      "##경": 5527,
      "##境": 5528,
      "##友": 5529,
      "##ᾳ": 5530,
      "##足": 5531,
      "##押": 5532,
      "##刀": 5533,
      "##秋": 5534,
      "##栄": 5535,
      "##短": 5536,
      "##編": 5537,
      "##ژ": 5538,
      "##轮": 5539,
      "##猪": 5540,
      "##ۏ": 5541,
      "##邯": 5542,
      "##棋": 5543,
      "##ռ": 5544,
      "##华": 5545,
      "##厚": 5546,
      "##ਥ": 5547,
      "##ǝ": 5548,
      "##ᚬ": 5549,
      "##ᚼ": 5550,
      "##ᚾ": 5551,
      "##ᛅ": 5552,
      "##ᛋ": 5553,
      "##ᛏ": 5554,
      "##ᛒ": 5555,
      "##ᛘ": 5556,
      "##ᛦ": 5557,
      "##ḵ": 5558,
      "##ङ": 5559,
      "##丹": 5560,
      "##敬": 5561,
      "##夷": 5562,
      "##క": 5563,
      "##బ": 5564,
      "##ర": 5565,
      "##树": 5566,
      "##興": 5567,
      "##苏": 5568,
      "##泡": 5569,
      "##ؤ": 5570,
      "##浦": 5571,
      "##濤": 5572,
      "##席": 5573,
      "##录": 5574,
      "##雜": 5575,
      "##飛": 5576,
      "##鴻": 5577,
      "##Ô": 5578,
      "##祝": 5579,
      "##ں": 5580,
      "##𐤌": 5581,
      "##𐤍": 5582,
      "##별": 5583,
      "##시": 5584,
      "##ใ": 5585,
      "##姨": 5586,
      "##ḡ": 5587,
      "##װ": 5588,
      "##घ": 5589,
      "##右": 5590,
      "##ゃ": 5591,
      "##𨖲": 5592,
      "##進": 5593,
      "##穂": 5594,
      "##に": 5595,
      "##住": 5596,
      "##聞": 5597,
      "##말": 5598,
      "##ቱ": 5599,
      "##ゴ": 5600,
      "##ӓ": 5601,
      "##革": 5602,
      "##半": 5603,
      "##ছ": 5604,
      "##章": 5605,
      "##괜": 5606,
      "##찮": 5607,
      "##知": 5608,
      "##ў": 5609,
      "##ታ": 5610,
      "##ደ": 5611,
      "##아": 5612,
      "##십": 5613,
      "##グ": 5614,
      "##ণ": 5615,
      "##談": 5616,
      "##锦": 5617,
      "##涛": 5618,
      "##鍋": 5619,
      "##Ÿ": 5620,
      "##ۆ": 5621,
      "##Ξ": 5622,
      "##주": 5623,
      "##공": 5624,
      "##화": 5625,
      "##ಗ": 5626,
      "##ಳ": 5627,
      "##ರ": 5628,
      "##측": 5629,
      "##ភ": 5630,
      "##卷": 5631,
      "##ទ": 5632,
      "##ⵅ": 5633,
      "##ۈ": 5634,
      "##ฑ": 5635,
      "##ƒ": 5636,
      "##깨": 5637,
      "##曜": 5638,
      "##Ţ": 5639,
      "##를": 5640,
      "##営": 5641,
      "##跡": 5642,
      "##珍": 5643,
      "##ʈ": 5644,
      "##玉": 5645,
      "##ɟ": 5646,
      "##層": 5647,
      "##ヶ": 5648,
      "##烟": 5649,
      "##总": 5650,
      "##ຳ": 5651,
      "##ໜ": 5652,
      "##階": 5653,
      "##鳥": 5654,
      "##類": 5655,
      "##研": 5656,
      "##Ê": 5657,
      "##ῇ": 5658,
      "##逸": 5659,
      "##目": 5660,
      "##剧": 5661,
      "##妈": 5662,
      "##骂": 5663,
      "##马": 5664,
      "##吗": 5665,
      "##ょ": 5666,
      "##宋": 5667,
      "##Ə": 5668,
      "##め": 5669,
      "##圏": 5670,
      "##떻": 5671,
      "##靴": 5672,
      "##倍": 5673,
      "##ខ": 5674,
      "##解": 5675,
      "##ở": 5676,
      "##婚": 5677,
      "##隱": 5678,
      "##あ": 5679,
      "##ዲ": 5680,
      "##僕": 5681,
      "##ⵓ": 5682,
      "##ⵕ": 5683,
      "##ⵛ": 5684,
      "##拉": 5685,
      "##雅": 5686,
      "##脉": 5687,
      "##具": 5688,
      "##藩": 5689,
      "##置": 5690,
      "##塔": 5691,
      "##ゆ": 5692,
      "##船": 5693,
      "##ӯ": 5694,
      "##ª": 5695,
      "##ញ": 5696,
      "##零": 5697,
      "##吞": 5698,
      "##や": 5699,
      "##ぎ": 5700,
      "##眠": 5701,
      "##指": 5702,
      "##陳": 5703,
      "##Ц": 5704,
      "##帥": 5705,
      "##邇": 5706,
      "##ゲ": 5707,
      "##吟": 5708,
      "##兄": 5709,
      "##鎮": 5710,
      "##ҏ": 5711,
      "##ჯ": 5712,
      "##ኢ": 5713,
      "##녕": 5714,
      "##آ": 5715,
      "##親": 5716,
      "##病": 5717,
      "##餅": 5718,
      "##Θ": 5719,
      "##淵": 5720,
      "##鄉": 5721,
      "##增": 5722,
      "##則": 5723,
      "##绪": 5724,
      "##ኛ": 5725,
      "##ỏ": 5726,
      "##Ꮎ": 5727,
      "##Ꮟ": 5728,
      "##ғ": 5729,
      "##ȷ": 5730,
      "##米": 5731,
      "##辛": 5732,
      "##Ч": 5733,
      "##宏": 5734,
      "##𢆥": 5735,
      "##𥪞": 5736,
      "##𡎝": 5737,
      "##𠊛": 5738,
      "##才": 5739,
      "##窖": 5740,
      "##恄": 5741,
      "##𠑬": 5742,
      "##𣦰": 5743,
      "##戈": 5744,
      "##𣷭": 5745,
      "##橷": 5746,
      "##仍": 5747,
      "##調": 5748,
      "##𧡊": 5749,
      "##㐌": 5750,
      "##𤴬": 5751,
      "##疸": 5752,
      "##𢚸": 5753,
      "##𨓐": 5754,
      "##咦": 5755,
      "##彼": 5756,
      "##嗇": 5757,
      "##𡗶": 5758,
      "##撑": 5759,
      "##悁": 5760,
      "##貝": 5761,
      "##𦟐": 5762,
      "##紅": 5763,
      "##打": 5764,
      "##慳": 5765,
      "##Β": 5766,
      "##ލ": 5767,
      "##މ": 5768,
      "##ẻ": 5769,
      "##ױ": 5770,
      "##舊": 5771,
      "##鈔": 5772,
      "##凶": 5773,
      "##暴": 5774,
      "##燗": 5775,
      "##ፄ": 5776,
      "##โ": 5777,
      "##ਹ": 5778,
      "##⁴": 5779,
      "##ἲ": 5780,
      "##迪": 5781,
      "##沃": 5782,
      "##托": 5783,
      "##克": 5784,
      "##旛": 5785,
      "##石": 5786,
      "##議": 5787,
      "##院": 5788,
      "##럼": 5789,
      "##喇": 5790,
      "##昆": 5791,
      "##仑": 5792,
      "##礼": 5793,
      "##宫": 5794,
      "##賜": 5795,
      "##物": 5796,
      "##ထ": 5797,
      "##邦": 5798,
      "##佑": 5799,
      "##鉄": 5800,
      "##團": 5801,
      "##𠫾": 5802,
      "##句": 5803,
      "##寶": 5804,
      "##軽": 5805,
      "##峡": 5806,
      "##¼": 5807,
      "##豚": 5808,
      "##錄": 5809,
      "##ڨ": 5810,
      "##ﺯ": 5811,
      "##Ｑ": 5812,
      "##傳": 5813,
      "##救": 5814,
      "##ふ": 5815,
      "##溝": 5816,
      "##崖": 5817,
      "##綫": 5818,
      "##翡": 5819,
      "##翠": 5820,
      "##립": 5821,
      "##문": 5822,
      "##温": 5823,
      "##燒": 5824,
      "##ड": 5825,
      "##蛇": 5826,
      "##ċ": 5827,
      "##韻": 5828,
      "##参": 5829,
      "##續": 5830,
      "##超": 5831,
      "##ٹ": 5832,
      "##Û": 5833,
      "##速": 5834,
      "##鐵": 5835,
      "##ქ": 5836,
      "##碁": 5837,
      "##未": 5838,
      "##ゼ": 5839,
      "##衆": 5840,
      "##征": 5841,
      "##面": 5842,
      "##儿": 5843,
      "##只": 5844,
      "##斤": 5845,
      "##忽": 5846,
      "##必": 5847,
      "##烈": 5848,
      "##尺": 5849,
      "##હ": 5850,
      "##ન": 5851,
      "##સ": 5852,
      "##Э": 5853,
      "##凰": 5854,
      "##ፈ": 5855,
      "##ወ": 5856,
      "##ቂ": 5857,
      "##𐎲": 5858,
      "##𐎪": 5859,
      "##ῠ": 5860,
      "##Ł": 5861,
      "##遊": 5862,
      "##沌": 5863,
      "##ຄ": 5864,
      "##ຫ": 5865,
      "##來": 5866,
      "##ന": 5867,
      "##ത": 5868,
      "##മ": 5869,
      "##ང": 5870,
      "##ɱ": 5871,
      "##純": 5872,
      "##偉": 5873,
      "##赛": 5874,
      "##钦": 5875,
      "##丕": 5876,
      "##佛": 5877,
      "##坂": 5878,
      "##ῤ": 5879,
      "##図": 5880,
      "##士": 5881,
      "##緑": 5882,
      "##巨": 5883,
      "##如": 5884,
      "##噶": 5885,
      "##鲁": 5886,
      "##ӎ": 5887,
      "##ҡ": 5888,
      "##杠": 5889,
      "##赤": 5890,
      "##撘": 5891,
      "##菌": 5892,
      "##라": 5893,
      "##久": 5894,
      "##정": 5895,
      "##남": 5896,
      "##依": 5897,
      "##ⵇ": 5898,
      "##澄": 5899,
      "##可": 5900,
      "##斎": 5901,
      "##ද": 5902,
      "##상": 5903,
      "##瑶": 5904,
      "##族": 5905,
      "##ව": 5906,
      "##ӭ": 5907,
      "##麒": 5908,
      "##ἀ": 5909,
      "##尼": 5910,
      "##航": 5911,
      "##堆": 5912,
      "##典": 5913,
      "##力": 5914,
      "##源": 5915,
      "##ቅ": 5916,
      "##ギ": 5917,
      "##朝": 5918,
      "##兴": 5919,
      "##钟": 5920,
      "##ভ": 5921,
      "##着": 5922,
      "##ĺ": 5923,
      "##酛": 5924,
      "##杭": 5925,
      "##线": 5926,
      "##ޔ": 5927,
      "##殺": 5928,
      "##印": 5929,
      "##𧖱": 5930,
      "##㘇": 5931,
      "##魂": 5932,
      "##渃": 5933,
      "##亲": 5934,
      "##节": 5935,
      "##銀": 5936,
      "##ធ": 5937,
      "##祐": 5938,
      "##彰": 5939,
      "##晃": 5940,
      "##산": 5941,
      "##치": 5942,
      "##横": 5943,
      "##断": 5944,
      "##ӧ": 5945,
      "##ₙ": 5946,
      "##𐎱": 5947,
      "##제": 5948,
      "##貓": 5949,
      "##ਲ": 5950,
      "##函": 5951,
      "##견": 5952,
      "##傅": 5953,
      "##ܦ": 5954,
      "##빔": 5955,
      "##于": 5956,
      "##편": 5957,
      "##ƀ": 5958,
      "##𢩮": 5959,
      "##種": 5960,
      "##圭": 5961,
      "##鄕": 5962,
      "##過": 5963,
      "##嘆": 5964,
      "##ኅ": 5965,
      "##ረ": 5966,
      "##ሰ": 5967,
      "##ɤ": 5968,
      "##策": 5969,
      "##𐌍": 5970,
      "##𐌄": 5971,
      "##𐌔": 5972,
      "##𐌀": 5973,
      "##𐌓": 5974,
      "##域": 5975,
      "##ږ": 5976,
      "##个": 5977,
      "##微": 5978,
      "##ᑐ": 5979,
      "##ܗ": 5980,
      "##肃": 5981,
      "##고": 5982,
      "##맙": 5983,
      "##ঠ": 5984,
      "##蒜": 5985,
      "##次": 5986,
      "##პ": 5987,
      "##ˁ": 5988,
      "##升": 5989,
      "##ピ": 5990,
      "##ュ": 5991,
      "##ǃ": 5992,
      "##ख": 5993,
      "##菩": 5994,
      "##薩": 5995,
      "##ખ": 5996,
      "##倭": 5997,
      "##賦": 5998,
      "##斗": 5999,
      "##賀": 6000,
      "##磬": 6001,
      "##炊": 6002,
      "##糖": 6003,
      "##君": 6004,
      "##閒": 6005,
      "##防": 6006,
      "##ನ": 6007,
      "##ಡ": 6008,
      "##欧": 6009,
      "##际": 6010,
      "##ḻ": 6011,
      "##계": 6012,
      "##獨": 6013,
      "##ṙ": 6014,
      "##금": 6015,
      "##鴨": 6016,
      "##拘": 6017,
      "##麵": 6018,
      "##ﬂ": 6019,
      "##ಲ": 6020,
      "##ಕ": 6021,
      "##ಯ": 6022,
      "##Ŭ": 6023,
      "##খ": 6024,
      "##广": 6025,
      "##양": 6026,
      "##할": 6027,
      "##ҫ": 6028,
      "##ฏ": 6029,
      "##筝": 6030,
      "##頁": 6031,
      "##剑": 6032,
      "##ѐ": 6033,
      "##에": 6034,
      "##ᛟ": 6035,
      "##ᚨ": 6036,
      "##忘": 6037,
      "##边": 6038,
      "##騎": 6039,
      "##嚕": 6040,
      "##爾": 6041,
      "##眞": 6042,
      "##乐": 6043,
      "##ም": 6044,
      "##𐎽": 6045,
      "##գ": 6046,
      "##감": 6047,
      "##ɻ": 6048,
      "##ɜ": 6049,
      "##塚": 6050,
      "##喃": 6051,
      "##వ": 6052,
      "##ల": 6053,
      "##വ": 6054,
      "##പ": 6055,
      "##冬": 6056,
      "##瓜": 6057,
      "##影": 6058,
      "##護": 6059,
      "##圣": 6060,
      "##经": 6061,
      "##豆": 6062,
      "##沪": 6063,
      "##ړ": 6064,
      "##조": 6065,
      "##常": 6066,
      "##ὦ": 6067,
      "##ほ": 6068,
      "##ӈ": 6069,
      "##濾": 6070,
      "##錫": 6071,
      "##阪": 6072,
      "##ģ": 6073,
      "##與": 6074,
      "##廃": 6075,
      "##ҧ": 6076,
      "##臺": 6077,
      "##錦": 6078,
      "##ዎ": 6079,
      "##ሮ": 6080,
      "##甬": 6081,
      "##ḋ": 6082,
      "##ለ": 6083,
      "##ໃ": 6084,
      "##권": 6085,
      "##ᓇ": 6086,
      "##ᕗ": 6087,
      "##ᑦ": 6088,
      "##ሌ": 6089,
      "##爭": 6090,
      "##嗣": 6091,
      "##乱": 6092,
      "##譲": 6093,
      "##ฬ": 6094,
      "##元": 6095,
      "##咫": 6096,
      "##已": 6097,
      "##幹": 6098,
      "##ˮ": 6099,
      "##壽": 6100,
      "##퍼": 6101,
      "##师": 6102,
      "##范": 6103,
      "##ǚ": 6104,
      "##프": 6105,
      "##莞": 6106,
      "##ẩ": 6107,
      "##留": 6108,
      "##筑": 6109,
      "##蒿": 6110,
      "##飭": 6111,
      "##奮": 6112,
      "##鬥": 6113,
      "##買": 6114,
      "##እ": 6115,
      "##ነ": 6116,
      "##抄": 6117,
      "##伊": 6118,
      "##ዓ": 6119,
      "##朔": 6120,
      "##མ": 6121,
      "##ǵ": 6122,
      "##歴": 6123,
      "##俗": 6124,
      "##ܕ": 6125,
      "##泉": 6126,
      "##晋": 6127,
      "##Ċ": 6128,
      "##희": 6129,
      "##Ț": 6130,
      "##銅": 6131,
      "##ゅ": 6132,
      "##ḳ": 6133,
      "##魏": 6134,
      "##振": 6135,
      "##略": 6136,
      "##ⵃ": 6137,
      "##梭": 6138,
      "##髷": 6139,
      "##ⴳ": 6140,
      "##穆": 6141,
      "##玛": 6142,
      "##圳": 6143,
      "##처": 6144,
      "##음": 6145,
      "##蓮": 6146,
      "##ῴ": 6147,
      "##負": 6148,
      "##斋": 6149,
      "##为": 6150,
      "##庄": 6151,
      "##旗": 6152,
      "##第": 6153,
      "##算": 6154,
      "##യ": 6155,
      "##ഴ": 6156,
      "##圆": 6157,
      "##堂": 6158,
      "##芝": 6159,
      "##領": 6160,
      "##લ": 6161,
      "##颖": 6162,
      "##晏": 6163,
      "##Ã": 6164,
      "##懷": 6165,
      "##写": 6166,
      "##帯": 6167,
      "##ხ": 6168,
      "##ზ": 6169,
      "##ሪ": 6170,
      "##儒": 6171,
      "##勢": 6172,
      "##辽": 6173,
      "##湯": 6174,
      "##ヂ": 6175,
      "##ṉ": 6176,
      "##繊": 6177,
      "##준": 6178,
      "##４": 6179,
      "##Ｘ": 6180,
      "##１": 6181,
      "##０": 6182,
      "##賽": 6183,
      "##活": 6184,
      "##腔": 6185,
      "##到": 6186,
      "##Â": 6187,
      "##鼻": 6188,
      "##Ư": 6189,
      "##貴": 6190,
      "##油": 6191,
      "##ຈ": 6192,
      "##彩": 6193,
      "##交": 6194,
      "##梧": 6195,
      "##珠": 6196,
      "##ڠ": 6197,
      "##ڬ": 6198,
      "##発": 6199,
      "##ҹ": 6200,
      "##比": 6201,
      "##𨀈": 6202,
      "##蹎": 6203,
      "##屯": 6204,
      "##𨕭": 6205,
      "##岌": 6206,
      "##𡹞": 6207,
      "##ӆ": 6208,
      "##Χ": 6209,
      "##習": 6210,
      "##麹": 6211,
      "##夢": 6212,
      "##幻": 6213,
      "##猖": 6214,
      "##核": 6215,
      "##ホ": 6216,
      "##髮": 6217,
      "##故": 6218,
      "##果": 6219,
      "##胜": 6220,
      "##各": 6221,
      "##徽": 6222,
      "##裳": 6223,
      "##顯": 6224,
      "##痘": 6225,
      "##ɶ": 6226,
      "##ǽ": 6227,
      "##ಜ": 6228,
      "##ವ": 6229,
      "##ಶ": 6230,
      "##የ": 6231,
      "##ና": 6232,
      "##凝": 6233,
      "##鑑": 6234,
      "##綱": 6235,
      "##en": 6236,
      "##er": 6237,
      "##an": 6238,
      "de": 6239,
      "##et": 6240,
      "##el": 6241,
      "##ij": 6242,
      "##or": 6243,
      "##in": 6244,
      "##aa": 6245,
      "##st": 6246,
      "##ch": 6247,
      "van": 6248,
      "##ie": 6249,
      "##on": 6250,
      "in": 6251,
      "##it": 6252,
      "##at": 6253,
      "en": 6254,
      "##oor": 6255,
      "##de": 6256,
      "het": 6257,
      "##den": 6258,
      "een": 6259,
      "##ing": 6260,
      "##aar": 6261,
      "##der": 6262,
      "##ar": 6263,
      "##al": 6264,
      "##is": 6265,
      "ge": 6266,
      "##ro": 6267,
      "##ig": 6268,
      "##le": 6269,
      "##ol": 6270,
      "##re": 6271,
      "##te": 6272,
      "ver": 6273,
      "be": 6274,
      "##cht": 6275,
      "op": 6276,
      "##ijk": 6277,
      "##and": 6278,
      "##ge": 6279,
      "##om": 6280,
      "##ijn": 6281,
      "19": 6282,
      "##oe": 6283,
      "##il": 6284,
      "##am": 6285,
      "##ur": 6286,
      "De": 6287,
      "##gen": 6288,
      "##ee": 6289,
      "##ver": 6290,
      "##ot": 6291,
      "##as": 6292,
      "##us": 6293,
      "voor": 6294,
      "##id": 6295,
      "al": 6296,
      "te": 6297,
      "##se": 6298,
      "##ken": 6299,
      "is": 6300,
      "##erd": 6301,
      "##sch": 6302,
      "st": 6303,
      "met": 6304,
      "on": 6305,
      "aan": 6306,
      "##ra": 6307,
      "zijn": 6308,
      "##ou": 6309,
      "##og": 6310,
      "##eer": 6311,
      "##un": 6312,
      "##he": 6313,
      "##ik": 6314,
      "20": 6315,
      "##ven": 6316,
      "uit": 6317,
      "wor": 6318,
      "##elijk": 6319,
      "##ste": 6320,
      "##aan": 6321,
      "##aat": 6322,
      "##ad": 6323,
      "##isch": 6324,
      "##es": 6325,
      "##ic": 6326,
      "##ent": 6327,
      "In": 6328,
      "die": 6329,
      "##ok": 6330,
      "door": 6331,
      "##ru": 6332,
      "##eg": 6333,
      "##ers": 6334,
      "dat": 6335,
      "##uw": 6336,
      "##op": 6337,
      "##eld": 6338,
      "##ct": 6339,
      "werd": 6340,
      "##iet": 6341,
      "als": 6342,
      "##land": 6343,
      "##ier": 6344,
      "over": 6345,
      "##aal": 6346,
      "##ist": 6347,
      "##em": 6348,
      "##ten": 6349,
      "##sen": 6350,
      "om": 6351,
      "##ap": 6352,
      "##dt": 6353,
      "was": 6354,
      "##ul": 6355,
      "##ft": 6356,
      "##erk": 6357,
      "of": 6358,
      "##ze": 6359,
      "bij": 6360,
      "##la": 6361,
      "##ische": 6362,
      "##ingen": 6363,
      "##eder": 6364,
      "##um": 6365,
      "##rij": 6366,
      "##ele": 6367,
      "waar": 6368,
      "onder": 6369,
      "geb": 6370,
      "##ang": 6371,
      "tot": 6372,
      "##ien": 6373,
      "##oo": 6374,
      "Het": 6375,
      "##atie": 6376,
      "ook": 6377,
      "##ond": 6378,
      "##ige": 6379,
      "##im": 6380,
      "er": 6381,
      "hij": 6382,
      "),": 6383,
      "##ter": 6384,
      "wordt": 6385,
      "sch": 6386,
      "##ich": 6387,
      "##os": 6388,
      "##len": 6389,
      "##iek": 6390,
      "##ed": 6391,
      "##est": 6392,
      "##ië": 6393,
      "gro": 6394,
      "##sp": 6395,
      "##uit": 6396,
      "##ber": 6397,
      "##eel": 6398,
      "##ag": 6399,
      "niet": 6400,
      "Neder": 6401,
      "200": 6402,
      "##ant": 6403,
      "zo": 6404,
      "##icht": 6405,
      "worden": 6406,
      "##aak": 6407,
      "##nen": 6408,
      "##uur": 6409,
      "##ion": 6410,
      "an": 6411,
      "##ep": 6412,
      "##ran": 6413,
      "Nederland": 6414,
      "sp": 6415,
      "af": 6416,
      "##me": 6417,
      "naar": 6418,
      "##ak": 6419,
      "##ind": 6420,
      "18": 6421,
      "##eren": 6422,
      "le": 6423,
      "pro": 6424,
      "##orm": 6425,
      "##ia": 6426,
      "##aren": 6427,
      "##wee": 6428,
      "maar": 6429,
      "##be": 6430,
      "##ut": 6431,
      "##heid": 6432,
      "ont": 6433,
      "##oen": 6434,
      "201": 6435,
      "##ale": 6436,
      "##art": 6437,
      "wer": 6438,
      "re": 6439,
      "##aam": 6440,
      "##mer": 6441,
      "##ater": 6442,
      "##eb": 6443,
      "##ir": 6444,
      "##dere": 6445,
      "pl": 6446,
      "##ve": 6447,
      "##ijd": 6448,
      "##od": 6449,
      "##pen": 6450,
      "vol": 6451,
      "##els": 6452,
      "##oet": 6453,
      "eer": 6454,
      "##ei": 6455,
      "##ouw": 6456,
      "##oord": 6457,
      "199": 6458,
      "zich": 6459,
      "deze": 6460,
      "##ri": 6461,
      "##zen": 6462,
      "##vol": 6463,
      "##oc": 6464,
      "##ne": 6465,
      "##elijke": 6466,
      "St": 6467,
      "##ab": 6468,
      "##00": 6469,
      "##ug": 6470,
      "ze": 6471,
      "##kt": 6472,
      "Al": 6473,
      "##rie": 6474,
      "dan": 6475,
      "##eeft": 6476,
      "##ite": 6477,
      "##ell": 6478,
      "##je": 6479,
      "Ch": 6480,
      "##ron": 6481,
      "##chter": 6482,
      "meer": 6483,
      "##af": 6484,
      "##rijk": 6485,
      "##sten": 6486,
      ").": 6487,
      "##ub": 6488,
      "##omen": 6489,
      "ter": 6490,
      "##elen": 6491,
      "##lijk": 6492,
      "##schap": 6493,
      "##oed": 6494,
      "##ac": 6495,
      "##igen": 6496,
      "##ctie": 6497,
      "##uid": 6498,
      "twee": 6499,
      "##io": 6500,
      "##ruik": 6501,
      "na": 6502,
      "##amen": 6503,
      "men": 6504,
      "jaar": 6505,
      "Fran": 6506,
      "##ust": 6507,
      "heeft": 6508,
      "##ieuw": 6509,
      "kan": 6510,
      "##ip": 6511,
      "##ine": 6512,
      "##tal": 6513,
      "##elf": 6514,
      "An": 6515,
      "##ort": 6516,
      "198": 6517,
      "best": 6518,
      "##men": 6519,
      "##aten": 6520,
      "##of": 6521,
      "##ast": 6522,
      "daar": 6523,
      "##aats": 6524,
      "gen": 6525,
      "##lo": 6526,
      "##ere": 6527,
      "##oek": 6528,
      "Een": 6529,
      "##ink": 6530,
      "##van": 6531,
      "had": 6532,
      "andere": 6533,
      "##ard": 6534,
      "gebruik": 6535,
      "##ation": 6536,
      "##ussen": 6537,
      "con": 6538,
      "##ert": 6539,
      "kun": 6540,
      "##ren": 6541,
      "197": 6542,
      "##oon": 6543,
      "kon": 6544,
      "##oren": 6545,
      "eerste": 6546,
      "Op": 6547,
      "nog": 6548,
      "werden": 6549,
      "##ies": 6550,
      "##acht": 6551,
      "##ud": 6552,
      "##we": 6553,
      "##aans": 6554,
      "tegen": 6555,
      "##onder": 6556,
      "##all": 6557,
      "##als": 6558,
      "##gev": 6559,
      "##geb": 6560,
      "##iv": 6561,
      "ste": 6562,
      "##gel": 6563,
      "alle": 6564,
      "##oem": 6565,
      "toe": 6566,
      "com": 6567,
      "versch": 6568,
      "##ke": 6569,
      "##pl": 6570,
      "zou": 6571,
      "##leden": 6572,
      "##oog": 6573,
      "##ann": 6574,
      "beg": 6575,
      "##raa": 6576,
      "dit": 6577,
      "##ben": 6578,
      "##ass": 6579,
      "mee": 6580,
      "##ings": 6581,
      "##ire": 6582,
      "Amer": 6583,
      "##een": 6584,
      "##ijden": 6585,
      "Mar": 6586,
      "##racht": 6587,
      "bel": 6588,
      "##dat": 6589,
      "##wij": 6590,
      "##ov": 6591,
      "##euw": 6592,
      "##ster": 6593,
      "##uc": 6594,
      "Hij": 6595,
      "Duit": 6596,
      "##del": 6597,
      "##sl": 6598,
      "##kend": 6599,
      "##per": 6600,
      "Amerik": 6601,
      "##oer": 6602,
      "##rit": 6603,
      "kw": 6604,
      "196": 6605,
      "##res": 6606,
      "##anden": 6607,
      "veel": 6608,
      "##oof": 6609,
      "bet": 6610,
      "##ui": 6611,
      "##ek": 6612,
      "tussen": 6613,
      "##iteit": 6614,
      "heb": 6615,
      "##alen": 6616,
      "stad": 6617,
      "eeuw": 6618,
      "##ari": 6619,
      "##rop": 6620,
      "Nederlands": 6621,
      "##ger": 6622,
      "##int": 6623,
      "waren": 6624,
      "gev": 6625,
      "Van": 6626,
      "##uis": 6627,
      "##ign": 6628,
      "hebben": 6629,
      "kle": 6630,
      "Sp": 6631,
      "##ood": 6632,
      "hun": 6633,
      "##ied": 6634,
      "Bel": 6635,
      "En": 6636,
      "##ders": 6637,
      "deel": 6638,
      "##voor": 6639,
      "reg": 6640,
      "##ec": 6641,
      "##gens": 6642,
      "##aanse": 6643,
      "##deren": 6644,
      "##ank": 6645,
      "##ma": 6646,
      "##meen": 6647,
      "overleden": 6648,
      "##man": 6649,
      "wel": 6650,
      "17": 6651,
      "##ef": 6652,
      "194": 6653,
      "groot": 6654,
      "min": 6655,
      "##onden": 6656,
      "nieuw": 6657,
      "The": 6658,
      "##aard": 6659,
      "zoals": 6660,
      "##olit": 6661,
      "##rouw": 6662,
      "16": 6663,
      "ar": 6664,
      "##ment": 6665,
      "##wer": 6666,
      "besch": 6667,
      "Er": 6668,
      "15": 6669,
      "##ost": 6670,
      "verk": 6671,
      "werk": 6672,
      "Dit": 6673,
      "Jo": 6674,
      "Sch": 6675,
      "##hou": 6676,
      "Deze": 6677,
      "##ong": 6678,
      "##innen": 6679,
      "##log": 6680,
      "verb": 6681,
      "haar": 6682,
      "##zet": 6683,
      "geen": 6684,
      "##aken": 6685,
      "Ar": 6686,
      "##end": 6687,
      "##sel": 6688,
      "bl": 6689,
      "per": 6690,
      "##ff": 6691,
      "##atuur": 6692,
      "tijd": 6693,
      "##beeld": 6694,
      "##ram": 6695,
      "plaats": 6696,
      "land": 6697,
      "kunnen": 6698,
      "##ob": 6699,
      "##th": 6700,
      "##av": 6701,
      "##erde": 6702,
      "##eerde": 6703,
      "##illen": 6704,
      "195": 6705,
      "##aakt": 6706,
      "##au": 6707,
      "##wel": 6708,
      "the": 6709,
      "##bij": 6710,
      "Belg": 6711,
      "Eu": 6712,
      "vorm": 6713,
      "bev": 6714,
      "##urg": 6715,
      "##ieden": 6716,
      "##kel": 6717,
      "grote": 6718,
      "gew": 6719,
      "##ode": 6720,
      "or": 6721,
      "Ge": 6722,
      "##ker": 6723,
      "voet": 6724,
      "##kken": 6725,
      "##raf": 6726,
      "ex": 6727,
      "zelf": 6728,
      "el": 6729,
      "##ide": 6730,
      "##oven": 6731,
      "##ein": 6732,
      "##lag": 6733,
      "##ill": 6734,
      "samen": 6735,
      "ged": 6736,
      "beh": 6737,
      "polit": 6738,
      "##if": 6739,
      "##itie": 6740,
      "##iel": 6741,
      "##aag": 6742,
      "bed": 6743,
      "##ijdens": 6744,
      "Ver": 6745,
      "naam": 6746,
      "##eerd": 6747,
      "##iden": 6748,
      "##oofd": 6749,
      "hier": 6750,
      "##werk": 6751,
      "##na": 6752,
      "echter": 6753,
      "oor": 6754,
      "##eten": 6755,
      "##jes": 6756,
      "kl": 6757,
      "##oemd": 6758,
      "193": 6759,
      "belang": 6760,
      "##ay": 6761,
      "##ieke": 6762,
      "##mee": 6763,
      "eigen": 6764,
      "##org": 6765,
      "##ool": 6766,
      "Bij": 6767,
      "##iss": 6768,
      "Ook": 6769,
      "##uren": 6770,
      "##tre": 6771,
      "##are": 6772,
      "Europ": 6773,
      "202": 6774,
      "her": 6775,
      "##amp": 6776,
      "##vers": 6777,
      "##stand": 6778,
      "10": 6779,
      "##oten": 6780,
      "Duits": 6781,
      "##ocht": 6782,
      "##baar": 6783,
      "##uz": 6784,
      "voetb": 6785,
      "gebruikt": 6786,
      "##oort": 6787,
      "Am": 6788,
      "##ubl": 6789,
      "weer": 6790,
      "later": 6791,
      "jaren": 6792,
      "##ieren": 6793,
      "nieuwe": 6794,
      "##olog": 6795,
      "Le": 6796,
      "moe": 6797,
      "##oop": 6798,
      "##allen": 6799,
      "##ucht": 6800,
      "12": 6801,
      "hem": 6802,
      "##ach": 6803,
      "##inds": 6804,
      "##ult": 6805,
      "##zien": 6806,
      "gem": 6807,
      "Na": 6808,
      "##ian": 6809,
      "lang": 6810,
      "##nel": 6811,
      "ten": 6812,
      "gesch": 6813,
      "##ilm": 6814,
      "zw": 6815,
      "bekend": 6816,
      "##ib": 6817,
      "wat": 6818,
      "##oel": 6819,
      "##ont": 6820,
      "mil": 6821,
      "##inc": 6822,
      "##ius": 6823,
      "aantal": 6824,
      "##uiten": 6825,
      "##omm": 6826,
      "align": 6827,
      "Nederlandse": 6828,
      "##ina": 6829,
      "##igd": 6830,
      "##ille": 6831,
      "##gt": 6832,
      "##yp": 6833,
      "Be": 6834,
      "##sk": 6835,
      "##ember": 6836,
      "##ha": 6837,
      "leven": 6838,
      "##igde": 6839,
      "verschillen": 6840,
      "On": 6841,
      "##ens": 6842,
      "##uk": 6843,
      "terug": 6844,
      "zij": 6845,
      "staat": 6846,
      "##rist": 6847,
      "drie": 6848,
      "##mp": 6849,
      "##deel": 6850,
      "##omt": 6851,
      "192": 6852,
      "##qu": 6853,
      "##aast": 6854,
      "##rond": 6855,
      "der": 6856,
      "##ellen": 6857,
      "##und": 6858,
      "sl": 6859,
      "Voor": 6860,
      "vrij": 6861,
      "##king": 6862,
      "##ijf": 6863,
      "##ces": 6864,
      "gemeen": 6865,
      "comp": 6866,
      "##lie": 6867,
      "##elling": 6868,
      "II": 6869,
      "##ric": 6870,
      "##enten": 6871,
      "##ce": 6872,
      "14": 6873,
      "##rik": 6874,
      "toen": 6875,
      "##ans": 6876,
      "##lijke": 6877,
      "belangrijk": 6878,
      "gel": 6879,
      "##ude": 6880,
      "hoog": 6881,
      "##iding": 6882,
      "##our": 6883,
      "##weg": 6884,
      "laat": 6885,
      "ontw": 6886,
      "##ering": 6887,
      "##aire": 6888,
      "##aart": 6889,
      "hoofd": 6890,
      "##du": 6891,
      "##ni": 6892,
      "##burg": 6893,
      "man": 6894,
      "11": 6895,
      "##ath": 6896,
      "##aties": 6897,
      "##ade": 6898,
      "##zer": 6899,
      "Vl": 6900,
      "kwam": 6901,
      "lig": 6902,
      "##age": 6903,
      "##ame": 6904,
      "di": 6905,
      "Brit": 6906,
      "bep": 6907,
      "##zelf": 6908,
      "he": 6909,
      "binnen": 6910,
      "##isme": 6911,
      "##yn": 6912,
      "##volg": 6913,
      "##ader": 6914,
      "Rom": 6915,
      "##erm": 6916,
      "ap": 6917,
      "Daar": 6918,
      "13": 6919,
      "##con": 6920,
      "inter": 6921,
      "koning": 6922,
      "##icus": 6923,
      "Amerikaans": 6924,
      "191": 6925,
      "vaak": 6926,
      "##artij": 6927,
      "##teur": 6928,
      "Gro": 6929,
      "##ow": 6930,
      "verschillende": 6931,
      "##ord": 6932,
      "moet": 6933,
      "##ks": 6934,
      "##eem": 6935,
      "##erdam": 6936,
      "##ium": 6937,
      "##over": 6938,
      "kre": 6939,
      "genoemd": 6940,
      "water": 6941,
      "##iddel": 6942,
      "Joh": 6943,
      "##aller": 6944,
      "we": 6945,
      "wereld": 6946,
      "##ss": 6947,
      "recht": 6948,
      "##woord": 6949,
      "opge": 6950,
      "aange": 6951,
      "##elt": 6952,
      "pers": 6953,
      "##cent": 6954,
      "ch": 6955,
      "##epen": 6956,
      "##oeg": 6957,
      "##unt": 6958,
      "tijdens": 6959,
      "##kele": 6960,
      "##stal": 6961,
      "Par": 6962,
      "##ander": 6963,
      "##agen": 6964,
      "hand": 6965,
      "##won": 6966,
      "ber": 6967,
      "##ogelijk": 6968,
      "##heden": 6969,
      "##act": 6970,
      "bez": 6971,
      "##ober": 6972,
      "omdat": 6973,
      "vier": 6974,
      "##iging": 6975,
      "ontst": 6976,
      "##ler": 6977,
      "##ins": 6978,
      "leg": 6979,
      "##uss": 6980,
      "gemeente": 6981,
      "##ief": 6982,
      "##geven": 6983,
      "##dien": 6984,
      "##osten": 6985,
      "ben": 6986,
      "##orp": 6987,
      "ontwik": 6988,
      "##vl": 6989,
      "elk": 6990,
      "tra": 6991,
      "##pro": 6992,
      "##les": 6993,
      "gele": 6994,
      "verh": 6995,
      "ru": 6996,
      "achter": 6997,
      "##aad": 6998,
      "Frank": 6999,
      "##gende": 7000,
      "##anis": 7001,
      "uitge": 7002,
      "Th": 7003,
      "verm": 7004,
      "Ze": 7005,
      "##vis": 7006,
      "##gro": 7007,
      "##reven": 7008,
      "##oom": 7009,
      "##tem": 7010,
      "get": 7011,
      "aut": 7012,
      "link": 7013,
      "left": 7014,
      "##rand": 7015,
      "##amil": 7016,
      "##oorden": 7017,
      "##aakte": 7018,
      "##mb": 7019,
      "alleen": 7020,
      "gez": 7021,
      "##nem": 7022,
      "##elde": 7023,
      "##ende": 7024,
      "##iedenis": 7025,
      "vrouw": 7026,
      "schrij": 7027,
      "##voorbeeld": 7028,
      "verl": 7029,
      "voetballer": 7030,
      "par": 7031,
      "##komen": 7032,
      "##ijst": 7033,
      "hoe": 7034,
      "##eter": 7035,
      "Ital": 7036,
      "##ouwd": 7037,
      "komt": 7038,
      "##oud": 7039,
      "vert": 7040,
      "##och": 7041,
      "##kende": 7042,
      "me": 7043,
      "dec": 7044,
      "##ica": 7045,
      "##onen": 7046,
      "Ne": 7047,
      "##ograf": 7048,
      "##omst": 7049,
      "waarbij": 7050,
      "##door": 7051,
      "ele": 7052,
      "ble": 7053,
      "##ate": 7054,
      "##eert": 7055,
      "sinds": 7056,
      "mogelijk": 7057,
      "##oot": 7058,
      "Af": 7059,
      "wil": 7060,
      "##anger": 7061,
      "bijvoorbeeld": 7062,
      "pre": 7063,
      "laatste": 7064,
      "enkele": 7065,
      "Ber": 7066,
      "##ruk": 7067,
      "##19": 7068,
      "boven": 7069,
      "##inn": 7070,
      "even": 7071,
      "##cl": 7072,
      "film": 7073,
      "rond": 7074,
      "Veren": 7075,
      "vooral": 7076,
      "##use": 7077,
      "tre": 7078,
      "tro": 7079,
      "##off": 7080,
      "sle": 7081,
      "at": 7082,
      "ne": 7083,
      "##uziek": 7084,
      "maken": 7085,
      "verd": 7086,
      "sy": 7087,
      "Amst": 7088,
      "##--": 7089,
      "##inden": 7090,
      "##rag": 7091,
      "##sm": 7092,
      "ger": 7093,
      "000": 7094,
      "dien": 7095,
      "##erie": 7096,
      "##schapp": 7097,
      "rel": 7098,
      "mensen": 7099,
      "##oorten": 7100,
      "Kon": 7101,
      "Br": 7102,
      "##ax": 7103,
      "##istor": 7104,
      "ac": 7105,
      "buiten": 7106,
      "##its": 7107,
      "Noord": 7108,
      "El": 7109,
      "##anu": 7110,
      "tweede": 7111,
      "Vol": 7112,
      "##sla": 7113,
      "Ant": 7114,
      "##pe": 7115,
      "pr": 7116,
      "##én": 7117,
      "##voer": 7118,
      "##enn": 7119,
      "gebied": 7120,
      "Zuid": 7121,
      "verw": 7122,
      "komen": 7123,
      "##vangen": 7124,
      "##eek": 7125,
      "##bum": 7126,
      "##ichting": 7127,
      "##air": 7128,
      "##ah": 7129,
      "##ett": 7130,
      "snel": 7131,
      "##ys": 7132,
      "Met": 7133,
      "##zoek": 7134,
      "##rijd": 7135,
      "Jan": 7136,
      "He": 7137,
      "Re": 7138,
      "geh": 7139,
      "##otor": 7140,
      "##zelfde": 7141,
      "West": 7142,
      "kreeg": 7143,
      "##chts": 7144,
      "Als": 7145,
      "##az": 7146,
      "##rum": 7147,
      "cent": 7148,
      "dus": 7149,
      "##iële": 7150,
      "Amsterdam": 7151,
      "##lak": 7152,
      "##form": 7153,
      "##enen": 7154,
      "##genomen": 7155,
      "##sche": 7156,
      "Om": 7157,
      "Wer": 7158,
      "##iode": 7159,
      "##ets": 7160,
      "##anten": 7161,
      "##stad": 7162,
      "##riek": 7163,
      "##mal": 7164,
      "##eds": 7165,
      "##oden": 7166,
      "cont": 7167,
      "##vinc": 7168,
      "waarin": 7169,
      "##kelijk": 7170,
      "##eling": 7171,
      "gek": 7172,
      "##aur": 7173,
      "##ogen": 7174,
      "##duc": 7175,
      "##ationale": 7176,
      "##erv": 7177,
      "##aalde": 7178,
      "grond": 7179,
      "Duitse": 7180,
      "##idd": 7181,
      "sterk": 7182,
      "##geveer": 7183,
      "##ugust": 7184,
      "vanaf": 7185,
      "Con": 7186,
      "eind": 7187,
      "##stelling": 7188,
      "Hier": 7189,
      "##arm": 7190,
      "goed": 7191,
      "dag": 7192,
      "##gram": 7193,
      "##huis": 7194,
      "##anc": 7195,
      "##oorlog": 7196,
      "zeer": 7197,
      "##ry": 7198,
      "ruim": 7199,
      "ging": 7200,
      "hou": 7201,
      "##igheid": 7202,
      "##ident": 7203,
      "190": 7204,
      "##anuari": 7205,
      "##ologie": 7206,
      "##steld": 7207,
      "##wijk": 7208,
      "org": 7209,
      "##aald": 7210,
      "Engel": 7211,
      "##rom": 7212,
      "open": 7213,
      "bas": 7214,
      "partij": 7215,
      "##ijnen": 7216,
      "bestaan": 7217,
      "##terne": 7218,
      "Frans": 7219,
      "januari": 7220,
      "##olen": 7221,
      "steeds": 7222,
      "nam": 7223,
      "Me": 7224,
      "##ril": 7225,
      "natuur": 7226,
      "pres": 7227,
      "##ect": 7228,
      "##sb": 7229,
      "Is": 7230,
      "Door": 7231,
      "##raaf": 7232,
      "Pa": 7233,
      "kerk": 7234,
      "##ator": 7235,
      "##ph": 7236,
      "##isten": 7237,
      "##houden": 7238,
      "##old": 7239,
      "##open": 7240,
      "##uni": 7241,
      "##oci": 7242,
      "ongeveer": 7243,
      "afge": 7244,
      "##lex": 7245,
      "ligt": 7246,
      "25": 7247,
      "##eiden": 7248,
      "##istische": 7249,
      "elkaar": 7250,
      "bestaat": 7251,
      "##rab": 7252,
      "Twee": 7253,
      "één": 7254,
      "Ind": 7255,
      "##bouw": 7256,
      "##tember": 7257,
      "grootste": 7258,
      "##recht": 7259,
      "##ner": 7260,
      "##co": 7261,
      "##nam": 7262,
      "Zo": 7263,
      "Chr": 7264,
      "##eizer": 7265,
      "##oms": 7266,
      "##oge": 7267,
      "##omp": 7268,
      "##ck": 7269,
      "##roeg": 7270,
      "##amilie": 7271,
      "vl": 7272,
      "Car": 7273,
      "speel": 7274,
      "##stru": 7275,
      "ind": 7276,
      "Te": 7277,
      "bouw": 7278,
      "##xterne": 7279,
      "##iter": 7280,
      "weg": 7281,
      "##assen": 7282,
      "Amerikaanse": 7283,
      "sep": 7284,
      "##ilder": 7285,
      "mei": 7286,
      "##ure": 7287,
      "30": 7288,
      "bew": 7289,
      "##inder": 7290,
      "Hol": 7291,
      "##issen": 7292,
      "##iën": 7293,
      "milj": 7294,
      "kunst": 7295,
      "Frankrijk": 7296,
      "##rip": 7297,
      "##nivers": 7298,
      "##rug": 7299,
      "nu": 7300,
      "##val": 7301,
      "##chn": 7302,
      "##uizen": 7303,
      "##sie": 7304,
      "##spron": 7305,
      "##ktober": 7306,
      "##ange": 7307,
      "##amer": 7308,
      "##mm": 7309,
      "##iz": 7310,
      "gaan": 7311,
      "##ister": 7312,
      "ontwikkel": 7313,
      "act": 7314,
      "##iland": 7315,
      "##ral": 7316,
      "##berg": 7317,
      "##uli": 7318,
      "provinc": 7319,
      "bete": 7320,
      "zet": 7321,
      "begon": 7322,
      "##ict": 7323,
      "##ijs": 7324,
      "Kar": 7325,
      "mar": 7326,
      "oktober": 7327,
      "eerst": 7328,
      "##par": 7329,
      "België": 7330,
      "##bl": 7331,
      "hel": 7332,
      "oorlog": 7333,
      "verz": 7334,
      "##leg": 7335,
      "Or": 7336,
      "100": 7337,
      "##ive": 7338,
      "verg": 7339,
      "##bare": 7340,
      "september": 7341,
      "begin": 7342,
      "##tijd": 7343,
      "##ese": 7344,
      "Wereld": 7345,
      "via": 7346,
      "##mat": 7347,
      "##oeken": 7348,
      "##aas": 7349,
      "##bel": 7350,
      "weten": 7351,
      "volgens": 7352,
      "Franse": 7353,
      "##rat": 7354,
      "december": 7355,
      "oud": 7356,
      "res": 7357,
      "##ees": 7358,
      "nov": 7359,
      "##inde": 7360,
      "klein": 7361,
      "gesp": 7362,
      "krij": 7363,
      "189": 7364,
      "##indt": 7365,
      "zonder": 7366,
      "dood": 7367,
      "##rijf": 7368,
      "Her": 7369,
      "gemaakt": 7370,
      "##ving": 7371,
      "art": 7372,
      "##up": 7373,
      "off": 7374,
      "tele": 7375,
      "Zijn": 7376,
      "kleine": 7377,
      "Sint": 7378,
      "##ugustus": 7379,
      "##ografie": 7380,
      "maakte": 7381,
      "groep": 7382,
      "waardoor": 7383,
      "Un": 7384,
      "##one": 7385,
      "##ae": 7386,
      "rol": 7387,
      "##ole": 7388,
      "##gang": 7389,
      "hadden": 7390,
      "juni": 7391,
      "##eur": 7392,
      "##eeuw": 7393,
      "Pro": 7394,
      "##alt": 7395,
      "Europa": 7396,
      "periode": 7397,
      "Sh": 7398,
      "Zw": 7399,
      "##bert": 7400,
      "Staten": 7401,
      "##woners": 7402,
      "##onde": 7403,
      "gaat": 7404,
      "zoon": 7405,
      "minder": 7406,
      "##vorm": 7407,
      "##hank": 7408,
      "Ste": 7409,
      "##olf": 7410,
      "ad": 7411,
      "soort": 7412,
      "##komst": 7413,
      "huid": 7414,
      "##gebied": 7415,
      "##ubliek": 7416,
      "politicus": 7417,
      "Ad": 7418,
      "##att": 7419,
      "##slag": 7420,
      "muziek": 7421,
      "2006": 7422,
      "##gramma": 7423,
      "##ore": 7424,
      "2004": 7425,
      "produ": 7426,
      "##ën": 7427,
      "fun": 7428,
      "##ess": 7429,
      "juli": 7430,
      "maart": 7431,
      "Verenigde": 7432,
      "meestal": 7433,
      "april": 7434,
      "##idden": 7435,
      "##ject": 7436,
      "Duitsland": 7437,
      "##ott": 7438,
      "##aars": 7439,
      "2007": 7440,
      "spec": 7441,
      "##kl": 7442,
      "et": 7443,
      "taal": 7444,
      "##stre": 7445,
      "inge": 7446,
      "november": 7447,
      "Over": 7448,
      "beteken": 7449,
      "##gemeen": 7450,
      "##ruis": 7451,
      "##raat": 7452,
      "188": 7453,
      "Bo": 7454,
      "##schiedenis": 7455,
      "gehe": 7456,
      "##ragen": 7457,
      "##sh": 7458,
      "##De": 7459,
      "lucht": 7460,
      "##atief": 7461,
      "Romein": 7462,
      "##conom": 7463,
      "vast": 7464,
      "Den": 7465,
      "Onder": 7466,
      "##eed": 7467,
      "##get": 7468,
      "oude": 7469,
      "Wille": 7470,
      "##sy": 7471,
      "lich": 7472,
      "2000": 7473,
      "bro": 7474,
      "##rijs": 7475,
      "soorten": 7476,
      "vijf": 7477,
      "verder": 7478,
      "Rijk": 7479,
      "bere": 7480,
      "##elden": 7481,
      "west": 7482,
      "Tweede": 7483,
      "##ly": 7484,
      "##sc": 7485,
      "##ioen": 7486,
      "Je": 7487,
      "##gels": 7488,
      "net": 7489,
      "2005": 7490,
      "##arde": 7491,
      "augustus": 7492,
      "zal": 7493,
      "##gele": 7494,
      "##red": 7495,
      "21": 7496,
      "##roken": 7497,
      "prob": 7498,
      "pop": 7499,
      "##vens": 7500,
      "elekt": 7501,
      "onderzoek": 7502,
      "bre": 7503,
      "voort": 7504,
      "##iez": 7505,
      "histor": 7506,
      "##ern": 7507,
      "##ijl": 7508,
      "##vloed": 7509,
      "##oerd": 7510,
      "##nieuw": 7511,
      "##sloten": 7512,
      "##anen": 7513,
      "##alis": 7514,
      "Willem": 7515,
      "##amb": 7516,
      "den": 7517,
      "gest": 7518,
      "##ret": 7519,
      "##iaans": 7520,
      "##ente": 7521,
      "##orte": 7522,
      "bevol": 7523,
      "landen": 7524,
      "##aste": 7525,
      "##led": 7526,
      "oorspron": 7527,
      "##loot": 7528,
      "num": 7529,
      "##steem": 7530,
      "##itu": 7531,
      "president": 7532,
      "##plaat": 7533,
      "##wege": 7534,
      "##lijn": 7535,
      "Russ": 7536,
      "waarvan": 7537,
      "boek": 7538,
      "Belgisch": 7539,
      "middel": 7540,
      "Nieuw": 7541,
      "Europese": 7542,
      "2009": 7543,
      "##egd": 7544,
      "##tern": 7545,
      "sc": 7546,
      "meeste": 7547,
      "dicht": 7548,
      "##schappen": 7549,
      "Ph": 7550,
      "mon": 7551,
      "Oosten": 7552,
      "##ons": 7553,
      "and": 7554,
      "macht": 7555,
      "##uld": 7556,
      "album": 7557,
      "##raag": 7558,
      "##ommige": 7559,
      "motor": 7560,
      "2008": 7561,
      "blij": 7562,
      "zien": 7563,
      "do": 7564,
      "rijk": 7565,
      "##useum": 7566,
      "##ikt": 7567,
      "\".": 7568,
      "je": 7569,
      "##inderen": 7570,
      "##rek": 7571,
      "miljoen": 7572,
      "##wijl": 7573,
      "won": 7574,
      "meter": 7575,
      "mens": 7576,
      "2003": 7577,
      "##20": 7578,
      "##deeld": 7579,
      "##olle": 7580,
      "##ïn": 7581,
      "Zie": 7582,
      "##oss": 7583,
      "##ilip": 7584,
      "intern": 7585,
      "moest": 7586,
      "##oeren": 7587,
      "geme": 7588,
      "stand": 7589,
      "Jac": 7590,
      "keizer": 7591,
      "##oder": 7592,
      "24": 7593,
      "##ucces": 7594,
      "geld": 7595,
      "Aan": 7596,
      "##raak": 7597,
      "enige": 7598,
      "bestuur": 7599,
      "slechts": 7600,
      "##ositie": 7601,
      "##yl": 7602,
      "2010": 7603,
      "##iaal": 7604,
      "comm": 7605,
      "##uiden": 7606,
      "##unde": 7607,
      "staan": 7608,
      "Pl": 7609,
      "offic": 7610,
      "187": 7611,
      "##dom": 7612,
      "##raal": 7613,
      "##wijs": 7614,
      "La": 7615,
      "Bl": 7616,
      "Christ": 7617,
      "bur": 7618,
      "##hankelijk": 7619,
      "soms": 7620,
      "Bar": 7621,
      "##ebru": 7622,
      "##stof": 7623,
      "##oos": 7624,
      "##ante": 7625,
      "zanger": 7626,
      "christ": 7627,
      "keer": 7628,
      "##erg": 7629,
      "##oun": 7630,
      "##ublic": 7631,
      "John": 7632,
      "##ulp": 7633,
      "gelijk": 7634,
      "##li": 7635,
      "##orie": 7636,
      "licht": 7637,
      "zowel": 7638,
      "organis": 7639,
      "Tur": 7640,
      "toege": 7641,
      "##her": 7642,
      "Jap": 7643,
      "##houd": 7644,
      "##isc": 7645,
      "plaat": 7646,
      "##naast": 7647,
      "zelfs": 7648,
      "##reg": 7649,
      "links": 7650,
      "##ebruari": 7651,
      "huis": 7652,
      "2012": 7653,
      "milit": 7654,
      "Paul": 7655,
      "trad": 7656,
      "##issch": 7657,
      "##stant": 7658,
      "inwoners": 7659,
      "##bre": 7660,
      "vele": 7661,
      "22": 7662,
      "familie": 7663,
      "Vlaam": 7664,
      "med": 7665,
      "vormen": 7666,
      "2011": 7667,
      "Wereldoorlog": 7668,
      "provincie": 7669,
      "23": 7670,
      "##ue": 7671,
      "##iep": 7672,
      "##aven": 7673,
      "New": 7674,
      "##igh": 7675,
      "succes": 7676,
      "mag": 7677,
      "##onie": 7678,
      "##schijn": 7679,
      "februari": 7680,
      "##gaan": 7681,
      "zouden": 7682,
      "leger": 7683,
      "Afrik": 7684,
      "##athol": 7685,
      "##pel": 7686,
      "##zonder": 7687,
      "##werp": 7688,
      "##indelijk": 7689,
      "dorp": 7690,
      "volgende": 7691,
      "2002": 7692,
      "acteur": 7693,
      "##cties": 7694,
      "##ris": 7695,
      "##hand": 7696,
      "Oost": 7697,
      "Tijdens": 7698,
      "gevolg": 7699,
      "schrijver": 7700,
      "acht": 7701,
      "Per": 7702,
      "##uin": 7703,
      "dire": 7704,
      "loop": 7705,
      "##verse": 7706,
      "##zij": 7707,
      "##rak": 7708,
      "##ild": 7709,
      "186": 7710,
      "##veren": 7711,
      "belangrijke": 7712,
      "##ux": 7713,
      "##reef": 7714,
      "##malige": 7715,
      "##orst": 7716,
      "##oy": 7717,
      "##landse": 7718,
      "##adat": 7719,
      "##entie": 7720,
      "wet": 7721,
      "##ene": 7722,
      "##ock": 7723,
      "##arte": 7724,
      "lid": 7725,
      "verv": 7726,
      "noord": 7727,
      "##zicht": 7728,
      "##oemde": 7729,
      "##ox": 7730,
      "##fin": 7731,
      "werken": 7732,
      "gren": 7733,
      "hal": 7734,
      "##aus": 7735,
      "zee": 7736,
      "##ije": 7737,
      "##werpen": 7738,
      "##woordig": 7739,
      "televis": 7740,
      "gep": 7741,
      "band": 7742,
      "##itt": 7743,
      "##ierd": 7744,
      "vlie": 7745,
      "##rice": 7746,
      "compon": 7747,
      "Ab": 7748,
      "##niversiteit": 7749,
      "aand": 7750,
      "groter": 7751,
      "vroeg": 7752,
      "##ozen": 7753,
      "Hoe": 7754,
      "regering": 7755,
      "##ider": 7756,
      "bijn": 7757,
      "tw": 7758,
      "##itel": 7759,
      "conc": 7760,
      "##wez": 7761,
      "tek": 7762,
      "##lement": 7763,
      "Dat": 7764,
      "fin": 7765,
      "##emen": 7766,
      "riv": 7767,
      "beide": 7768,
      "huidige": 7769,
      "vader": 7770,
      "##loop": 7771,
      "##ith": 7772,
      "arch": 7773,
      "##gent": 7774,
      "Har": 7775,
      "##tu": 7776,
      "2001": 7777,
      "##eef": 7778,
      "##adio": 7779,
      "##ratie": 7780,
      "plan": 7781,
      "gener": 7782,
      "2013": 7783,
      "##kund": 7784,
      "kop": 7785,
      "ab": 7786,
      "persoon": 7787,
      "einde": 7788,
      "Konink": 7789,
      "##orn": 7790,
      "derde": 7791,
      "wij": 7792,
      "zuid": 7793,
      "##50": 7794,
      "##punt": 7795,
      "ontstaan": 7796,
      "basis": 7797,
      "##aris": 7798,
      "Ed": 7799,
      "##oede": 7800,
      "##room": 7801,
      "Eer": 7802,
      "belangrijkste": 7803,
      "km": 7804,
      "##ël": 7805,
      "ple": 7806,
      "##elingen": 7807,
      "Hen": 7808,
      "Top": 7809,
      "altijd": 7810,
      "##iale": 7811,
      "rest": 7812,
      "##iende": 7813,
      "##chte": 7814,
      "bleef": 7815,
      "##anneer": 7816,
      "##hem": 7817,
      "##volut": 7818,
      "Griek": 7819,
      "ou": 7820,
      "cult": 7821,
      "hoge": 7822,
      "##ific": 7823,
      "spel": 7824,
      "##chten": 7825,
      "##raad": 7826,
      "terwijl": 7827,
      "##ork": 7828,
      "##unten": 7829,
      "##richt": 7830,
      "##ton": 7831,
      "gere": 7832,
      "ant": 7833,
      "##maal": 7834,
      "##eth": 7835,
      "Cent": 7836,
      "2014": 7837,
      "##ring": 7838,
      "##rokken": 7839,
      "Gen": 7840,
      "zeven": 7841,
      "##itter": 7842,
      "##leiding": 7843,
      "woord": 7844,
      "##asse": 7845,
      "##ald": 7846,
      "##oep": 7847,
      "bevolking": 7848,
      "##ertog": 7849,
      "##uwelijk": 7850,
      "gebouwd": 7851,
      "##vlak": 7852,
      "And": 7853,
      "##ampioen": 7854,
      "26": 7855,
      "verkl": 7856,
      "Uit": 7857,
      "##vel": 7858,
      "Mich": 7859,
      "1990": 7860,
      "ster": 7861,
      "##ain": 7862,
      "##riv": 7863,
      "##waar": 7864,
      "cl": 7865,
      "soci": 7866,
      "waaronder": 7867,
      "##ctief": 7868,
      "2015": 7869,
      "Frie": 7870,
      "##ieken": 7871,
      "##tra": 7872,
      "27": 7873,
      "eiland": 7874,
      "ken": 7875,
      "Vanaf": 7876,
      "vond": 7877,
      "##oth": 7878,
      "##staan": 7879,
      "##aliteit": 7880,
      "##rien": 7881,
      "econom": 7882,
      "moeten": 7883,
      "mod": 7884,
      "sn": 7885,
      "##erkt": 7886,
      "jon": 7887,
      "bedrijf": 7888,
      "Sinds": 7889,
      "##oll": 7890,
      "uitgeb": 7891,
      "##volgens": 7892,
      "##eiz": 7893,
      "gezien": 7894,
      "Cl": 7895,
      "28": 7896,
      "popul": 7897,
      "Men": 7898,
      "##aden": 7899,
      "##geving": 7900,
      "Zij": 7901,
      "2018": 7902,
      "laten": 7903,
      "##ile": 7904,
      "Fre": 7905,
      "##gem": 7906,
      "lichaam": 7907,
      "Brits": 7908,
      "##edst": 7909,
      "Mon": 7910,
      "##aand": 7911,
      "meest": 7912,
      "##rijven": 7913,
      "##menten": 7914,
      "Can": 7915,
      "##eft": 7916,
      "##cten": 7917,
      "lag": 7918,
      "##mar": 7919,
      "opger": 7920,
      "kinderen": 7921,
      "50": 7922,
      "beeld": 7923,
      "Ger": 7924,
      "##eks": 7925,
      "##ieten": 7926,
      "fe": 7927,
      "1999": 7928,
      "gelegen": 7929,
      "##ix": 7930,
      "Oostenrijk": 7931,
      "##spre": 7932,
      "Fl": 7933,
      "Engels": 7934,
      "Sc": 7935,
      "stond": 7936,
      "##ationaal": 7937,
      "##deling": 7938,
      "2016": 7939,
      "##tes": 7940,
      "opnieuw": 7941,
      "##gevoerd": 7942,
      "At": 7943,
      "##out": 7944,
      "zodat": 7945,
      "Eg": 7946,
      "vinden": 7947,
      "volg": 7948,
      "Die": 7949,
      "delen": 7950,
      "lange": 7951,
      "##meester": 7952,
      "III": 7953,
      "Geschiedenis": 7954,
      "duid": 7955,
      "God": 7956,
      "##vaart": 7957,
      "Britse": 7958,
      "dezelfde": 7959,
      "##dag": 7960,
      "veroor": 7961,
      "Lijst": 7962,
      "##orden": 7963,
      "##iger": 7964,
      "gegeven": 7965,
      "##angen": 7966,
      "volled": 7967,
      "aanwez": 7968,
      "du": 7969,
      "1998": 7970,
      "Pr": 7971,
      "invloed": 7972,
      "term": 7973,
      "##naam": 7974,
      "Bra": 7975,
      "maan": 7976,
      "minister": 7977,
      "geven": 7978,
      "##isse": 7979,
      "##iër": 7980,
      "voetbal": 7981,
      "##iaanse": 7982,
      "##hal": 7983,
      "1995": 7984,
      "mede": 7985,
      "##sluit": 7986,
      "ander": 7987,
      "##slagen": 7988,
      "dagen": 7989,
      "##omb": 7990,
      "ieder": 7991,
      "bevat": 7992,
      ".)": 7993,
      "##In": 7994,
      "2017": 7995,
      "2019": 7996,
      "1994": 7997,
      "verander": 7998,
      "##ice": 7999,
      "Toen": 8000,
      "##rui": 8001,
      "##ick": 8002,
      "##iezingen": 8003,
      "techn": 8004,
      "kwamen": 8005,
      "wein": 8006,
      "bron": 8007,
      "zes": 8008,
      "vanuit": 8009,
      "vij": 8010,
      "##ère": 8011,
      "doel": 8012,
      "leid": 8013,
      "183": 8014,
      "Kl": 8015,
      "##ged": 8016,
      "##uze": 8017,
      "maakt": 8018,
      "##ctuur": 8019,
      "##ijen": 8020,
      "pas": 8021,
      "##vang": 8022,
      "Romeinse": 8023,
      "##unst": 8024,
      "gaf": 8025,
      "##eil": 8026,
      "##wegen": 8027,
      "##uurt": 8028,
      "Alex": 8029,
      "##ara": 8030,
      "nummer": 8031,
      "##iers": 8032,
      "##ico": 8033,
      "##11": 8034,
      "uite": 8035,
      "##aanderen": 8036,
      "##ument": 8037,
      "##arch": 8038,
      "##ase": 8039,
      "fil": 8040,
      "##ino": 8041,
      "##isschop": 8042,
      "vanwege": 8043,
      "##ley": 8044,
      "##ouwen": 8045,
      "Vlaanderen": 8046,
      "##ieel": 8047,
      "##ose": 8048,
      "Volgens": 8049,
      "2020": 8050,
      "politieke": 8051,
      "Oor": 8052,
      "Hend": 8053,
      "##leven": 8054,
      "druk": 8055,
      "leeft": 8056,
      "ontde": 8057,
      "##yr": 8058,
      "2022": 8059,
      "stem": 8060,
      "##sver": 8061,
      "leden": 8062,
      "diverse": 8063,
      "Sa": 8064,
      "Nederl": 8065,
      "Span": 8066,
      "Wil": 8067,
      "##iteratuur": 8068,
      "Will": 8069,
      "int": 8070,
      "rep": 8071,
      "un": 8072,
      "##sw": 8073,
      "##ca": 8074,
      "##ym": 8075,
      "bepaalde": 8076,
      "##eide": 8077,
      "mis": 8078,
      "2021": 8079,
      "##rengen": 8080,
      "gra": 8081,
      "##ana": 8082,
      "29": 8083,
      "Isra": 8084,
      "spoor": 8085,
      "##let": 8086,
      "\",": 8087,
      "##ace": 8088,
      "##eng": 8089,
      "##ling": 8090,
      "##elle": 8091,
      "nod": 8092,
      "zon": 8093,
      "##ule": 8094,
      "##son": 8095,
      "##rift": 8096,
      "Gu": 8097,
      "Man": 8098,
      "##ime": 8099,
      "Daarnaast": 8100,
      "##voud": 8101,
      "Belgische": 8102,
      "##weest": 8103,
      "ruimte": 8104,
      "wilde": 8105,
      "1996": 8106,
      "geweest": 8107,
      "Ter": 8108,
      "staats": 8109,
      "bijna": 8110,
      "##ellingen": 8111,
      "exp": 8112,
      "doen": 8113,
      "kol": 8114,
      "##ebs": 8115,
      "##itte": 8116,
      "steden": 8117,
      "##vallen": 8118,
      "heer": 8119,
      "woon": 8120,
      "##werking": 8121,
      "moder": 8122,
      "##mper": 8123,
      "##ooit": 8124,
      "1997": 8125,
      "##lands": 8126,
      "##arige": 8127,
      "Char": 8128,
      "voorkomen": 8129,
      "##aatschapp": 8130,
      "sommige": 8131,
      "##zett": 8132,
      "##ield": 8133,
      "##tie": 8134,
      "Aust": 8135,
      "Pal": 8136,
      "##ham": 8137,
      "##zaam": 8138,
      "'.": 8139,
      "gebeur": 8140,
      "mater": 8141,
      "##uig": 8142,
      "typ": 8143,
      "dieren": 8144,
      "pat": 8145,
      "##plaats": 8146,
      "31": 8147,
      "Johann": 8148,
      "##midd": 8149,
      "name": 8150,
      "verwij": 8151,
      "spre": 8152,
      "##left": 8153,
      "Japan": 8154,
      "##apen": 8155,
      "##uik": 8156,
      "geschiedenis": 8157,
      "##ooi": 8158,
      "stu": 8159,
      "beste": 8160,
      "hog": 8161,
      "##ational": 8162,
      "##ity": 8163,
      "Cor": 8164,
      "Externe": 8165,
      "kant": 8166,
      "##align": 8167,
      "##schijnlijk": 8168,
      "##atieve": 8169,
      "geheel": 8170,
      "##aw": 8171,
      "Maar": 8172,
      "##eelden": 8173,
      "##aker": 8174,
      "##ts": 8175,
      "Eerste": 8176,
      "184": 8177,
      "Ap": 8178,
      "1992": 8179,
      "sla": 8180,
      "onaf": 8181,
      "##jet": 8182,
      "ide": 8183,
      "Israël": 8184,
      "##ilige": 8185,
      "##ffen": 8186,
      "Kerk": 8187,
      "positie": 8188,
      "##trecht": 8189,
      "iets": 8190,
      "ontwikkeling": 8191,
      "proble": 8192,
      "opper": 8193,
      "toer": 8194,
      "uur": 8195,
      "gl": 8196,
      "##net": 8197,
      "algemeen": 8198,
      "schilder": 8199,
      "zeg": 8200,
      "weinig": 8201,
      "teken": 8202,
      "##kundige": 8203,
      "##anks": 8204,
      "##eizoen": 8205,
      "##ijnse": 8206,
      "amb": 8207,
      "heel": 8208,
      "titel": 8209,
      "##fl": 8210,
      "##weging": 8211,
      "konden": 8212,
      "zorg": 8213,
      "##ourn": 8214,
      "Engeland": 8215,
      "##Externe": 8216,
      "uiteindelijk": 8217,
      "Grote": 8218,
      "1993": 8219,
      "##kw": 8220,
      "Karel": 8221,
      "##iam": 8222,
      "regel": 8223,
      "##ingle": 8224,
      "richt": 8225,
      "graaf": 8226,
      "##rede": 8227,
      "wiel": 8228,
      "tran": 8229,
      "Se": 8230,
      "##tt": 8231,
      "nemen": 8232,
      "actrice": 8233,
      "Hendrik": 8234,
      "Az": 8235,
      "voed": 8236,
      "aard": 8237,
      "gevangen": 8238,
      "naast": 8239,
      "1991": 8240,
      "##fiet": 8241,
      "bracht": 8242,
      "1989": 8243,
      "Gron": 8244,
      "##10": 8245,
      "liet": 8246,
      "kil": 8247,
      "Italië": 8248,
      "Port": 8249,
      "god": 8250,
      "##ini": 8251,
      "eerder": 8252,
      "##stel": 8253,
      "Utrecht": 8254,
      "kleur": 8255,
      "##ines": 8256,
      "opgericht": 8257,
      "##jaar": 8258,
      "##ologische": 8259,
      "schreef": 8260,
      "serie": 8261,
      "dienst": 8262,
      "Unie": 8263,
      "185": 8264,
      "##veel": 8265,
      "##iviteit": 8266,
      "Rep": 8267,
      "##dracht": 8268,
      "nooit": 8269,
      "Qu": 8270,
      "fl": 8271,
      "eff": 8272,
      "##leet": 8273,
      "##oemen": 8274,
      "##orpen": 8275,
      "##----": 8276,
      "##zitter": 8277,
      "noorden": 8278,
      "##rol": 8279,
      "##veld": 8280,
      "hen": 8281,
      "Ben": 8282,
      "cir": 8283,
      "produc": 8284,
      "moeder": 8285,
      "ij": 8286,
      "productie": 8287,
      "##spel": 8288,
      "##ijken": 8289,
      "Wal": 8290,
      "##urende": 8291,
      "##ress": 8292,
      "ton": 8293,
      "We": 8294,
      "houden": 8295,
      "##ebsite": 8296,
      "des": 8297,
      "Col": 8298,
      "kracht": 8299,
      "geboren": 8300,
      "Mart": 8301,
      "geval": 8302,
      "hoogte": 8303,
      "speelde": 8304,
      "midden": 8305,
      "##II": 8306,
      "daarna": 8307,
      "##kk": 8308,
      "##ielen": 8309,
      "gebieden": 8310,
      "bi": 8311,
      "geschreven": 8312,
      "programma": 8313,
      "##doen": 8314,
      "langs": 8315,
      "seizoen": 8316,
      "vers": 8317,
      "waarmee": 8318,
      "##oorn": 8319,
      "vlucht": 8320,
      "geïn": 8321,
      "vest": 8322,
      "##roe": 8323,
      "zuiden": 8324,
      "##scheid": 8325,
      "##atholieke": 8326,
      "vern": 8327,
      "volk": 8328,
      "##etter": 8329,
      "##12": 8330,
      "Dav": 8331,
      "rij": 8332,
      "##formatie": 8333,
      "##igie": 8334,
      "hele": 8335,
      "##inding": 8336,
      "Filip": 8337,
      "Bro": 8338,
      "##igheden": 8339,
      "zogen": 8340,
      "prof": 8341,
      "##ition": 8342,
      "##umenten": 8343,
      "Parijs": 8344,
      "##yd": 8345,
      "stre": 8346,
      "##gelegd": 8347,
      "stud": 8348,
      "##ook": 8349,
      "##omer": 8350,
      "##namelijk": 8351,
      "##ierdoor": 8352,
      "##volgd": 8353,
      "##min": 8354,
      "##aj": 8355,
      "nodig": 8356,
      "##ichte": 8357,
      "##ras": 8358,
      "Piet": 8359,
      "1980": 8360,
      "Tot": 8361,
      "##clus": 8362,
      "##ld": 8363,
      "##itten": 8364,
      "##reur": 8365,
      "form": 8366,
      "40": 8367,
      "Austral": 8368,
      "Lat": 8369,
      "Intern": 8370,
      "1988": 8371,
      "namen": 8372,
      "echt": 8373,
      "ker": 8374,
      "##organis": 8375,
      "Italiaans": 8376,
      "##ars": 8377,
      "verzam": 8378,
      "brand": 8379,
      "krijgen": 8380,
      "##oest": 8381,
      "voornamelijk": 8382,
      "##ging": 8383,
      "##oment": 8384,
      "blijven": 8385,
      "Rus": 8386,
      "draa": 8387,
      "vle": 8388,
      "componist": 8389,
      "##ai": 8390,
      "Holland": 8391,
      "betekent": 8392,
      "##eest": 8393,
      "##orge": 8394,
      "##tegen": 8395,
      "ontwikk": 8396,
      "##teerd": 8397,
      "##keur": 8398,
      "##gesteld": 8399,
      "kort": 8400,
      "duidelijk": 8401,
      "Arab": 8402,
      "gehouden": 8403,
      "##iber": 8404,
      "1986": 8405,
      "##oegd": 8406,
      "bla": 8407,
      "meerdere": 8408,
      "overle": 8409,
      "gesla": 8410,
      "lijn": 8411,
      "verst": 8412,
      "vrouwen": 8413,
      "##axim": 8414,
      "##uigen": 8415,
      "Hong": 8416,
      "##kant": 8417,
      "##ave": 8418,
      "proces": 8419,
      "##alist": 8420,
      "wis": 8421,
      "verover": 8422,
      "leer": 8423,
      "##15": 8424,
      "Don": 8425,
      "##schrij": 8426,
      "##actie": 8427,
      "##abel": 8428,
      "##oz": 8429,
      "##winn": 8430,
      "##ser": 8431,
      "Rome": 8432,
      "##rim": 8433,
      "Kamer": 8434,
      "1970": 8435,
      "##sych": 8436,
      "systeem": 8437,
      "##elm": 8438,
      "##ight": 8439,
      "paar": 8440,
      "##aring": 8441,
      "public": 8442,
      "Cal": 8443,
      "rom": 8444,
      "1976": 8445,
      "##ekt": 8446,
      "##wezen": 8447,
      "##beelden": 8448,
      "##wet": 8449,
      "##alk": 8450,
      "##port": 8451,
      "##ussel": 8452,
      "Sov": 8453,
      "ob": 8454,
      "##grond": 8455,
      "vergelijk": 8456,
      "rivier": 8457,
      "geeft": 8458,
      "##ijns": 8459,
      "Ex": 8460,
      "',": 8461,
      "Spanje": 8462,
      "##ames": 8463,
      "Egyp": 8464,
      "##ail": 8465,
      "1977": 8466,
      "plaatsen": 8467,
      "##goed": 8468,
      "##moc": 8469,
      "liggen": 8470,
      "Amerika": 8471,
      "veld": 8472,
      "gedeel": 8473,
      "1985": 8474,
      "onderdeel": 8475,
      "hertog": 8476,
      "korte": 8477,
      "Maria": 8478,
      "##uil": 8479,
      "hoofdstad": 8480,
      "##issie": 8481,
      "##oloog": 8482,
      "##ergie": 8483,
      "##ustrie": 8484,
      "##ruiken": 8485,
      "daarom": 8486,
      "wetenschapp": 8487,
      "Mil": 8488,
      "##ane": 8489,
      "zie": 8490,
      "vervolgens": 8491,
      "##ward": 8492,
      "Ts": 8493,
      "##uist": 8494,
      "th": 8495,
      "Hoewel": 8496,
      "my": 8497,
      "Haag": 8498,
      "##tjes": 8499,
      "bloed": 8500,
      "car": 8501,
      "##rad": 8502,
      "leiding": 8503,
      "##offen": 8504,
      "Land": 8505,
      "bekende": 8506,
      "manier": 8507,
      "Engelse": 8508,
      "Pet": 8509,
      "wie": 8510,
      "deed": 8511,
      "voormalige": 8512,
      "kn": 8513,
      "##inen": 8514,
      "to": 8515,
      "##ise": 8516,
      "rec": 8517,
      "##bo": 8518,
      "reden": 8519,
      "##que": 8520,
      "##heids": 8521,
      "##ded": 8522,
      "top": 8523,
      "moment": 8524,
      "1982": 8525,
      "oper": 8526,
      "kap": 8527,
      "daarmee": 8528,
      "Brussel": 8529,
      "##west": 8530,
      "##ullen": 8531,
      "##200": 8532,
      "feit": 8533,
      "enkel": 8534,
      "1984": 8535,
      "##14": 8536,
      "1987": 8537,
      "for": 8538,
      "functie": 8539,
      "strijd": 8540,
      "leeftijd": 8541,
      "red": 8542,
      "bek": 8543,
      "Afrika": 8544,
      "overeen": 8545,
      "IJ": 8546,
      "co": 8547,
      "##eens": 8548,
      "##uro": 8549,
      "##rale": 8550,
      "Vlaamse": 8551,
      "grens": 8552,
      "##atus": 8553,
      "##erende": 8554,
      "filos": 8555,
      "##volutie": 8556,
      "ziek": 8557,
      "##uwe": 8558,
      "bescherm": 8559,
      "##obert": 8560,
      "opgevolgd": 8561,
      "1981": 8562,
      "beschik": 8563,
      "##osaur": 8564,
      "Sal": 8565,
      "##rieken": 8566,
      "Sm": 8567,
      "neer": 8568,
      "Rott": 8569,
      "tien": 8570,
      "generaal": 8571,
      "commun": 8572,
      "San": 8573,
      "##bal": 8574,
      "Lode": 8575,
      "gevonden": 8576,
      "afkomst": 8577,
      "##mon": 8578,
      "kar": 8579,
      "verhaal": 8580,
      "cons": 8581,
      "##inatie": 8582,
      "dochter": 8583,
      "waarschijnlijk": 8584,
      "##treden": 8585,
      "##13": 8586,
      "regio": 8587,
      "tekst": 8588,
      "2023": 8589,
      "Mer": 8590,
      "toch": 8591,
      "##hol": 8592,
      "Luc": 8593,
      "am": 8594,
      "##groep": 8595,
      "Zwits": 8596,
      "##dent": 8597,
      "##ival": 8598,
      "##oureur": 8599,
      "voorbeeld": 8600,
      "ca": 8601,
      "##raven": 8602,
      "Sovjet": 8603,
      "##ugd": 8604,
      "##ones": 8605,
      "##urt": 8606,
      "toon": 8607,
      "##lav": 8608,
      "##ction": 8609,
      "##water": 8610,
      "Rusland": 8611,
      "versie": 8612,
      "1945": 8613,
      "##urs": 8614,
      "dichter": 8615,
      "##ept": 8616,
      "##delen": 8617,
      "##center": 8618,
      "##lop": 8619,
      "##stellen": 8620,
      "veren": 8621,
      "##inter": 8622,
      "Lim": 8623,
      "##18": 8624,
      "##fen": 8625,
      "Lodewijk": 8626,
      "##rid": 8627,
      "##ama": 8628,
      "wedst": 8629,
      "1983": 8630,
      "zwaar": 8631,
      "##echt": 8632,
      "sec": 8633,
      "##riend": 8634,
      "##ilanden": 8635,
      "goede": 8636,
      "Lou": 8637,
      "##rijden": 8638,
      "90": 8639,
      "verscheen": 8640,
      "##zijde": 8641,
      "##plaatst": 8642,
      "spelen": 8643,
      "laag": 8644,
      "Alle": 8645,
      "Rotterdam": 8646,
      "motorfiet": 8647,
      "George": 8648,
      "##ding": 8649,
      "##eemt": 8650,
      "stam": 8651,
      "Groot": 8652,
      "la": 8653,
      "##16": 8654,
      "80": 8655,
      "##agn": 8656,
      "zogenaam": 8657,
      "volledig": 8658,
      "##ennis": 8659,
      "##straat": 8660,
      "norm": 8661,
      "##erse": 8662,
      "Later": 8663,
      "##fer": 8664,
      "##gemeester": 8665,
      "60": 8666,
      "fot": 8667,
      "##orgen": 8668,
      "school": 8669,
      "jong": 8670,
      "##heer": 8671,
      "##estigd": 8672,
      "centrum": 8673,
      "aligncenter": 8674,
      "):": 8675,
      "1979": 8676,
      "##intig": 8677,
      "erg": 8678,
      "sub": 8679,
      "##gelijk": 8680,
      "punt": 8681,
      "lever": 8682,
      "180": 8683,
      "##aap": 8684,
      "nadat": 8685,
      "##kunde": 8686,
      "##roon": 8687,
      "##past": 8688,
      "Griekse": 8689,
      "##kte": 8690,
      "wielren": 8691,
      "Koninkrijk": 8692,
      "huwelijk": 8693,
      "##illa": 8694,
      "brengen": 8695,
      "gebas": 8696,
      "Bur": 8697,
      "179": 8698,
      "Koning": 8699,
      "##werken": 8700,
      "paus": 8701,
      "trouw": 8702,
      "troepen": 8703,
      "##ung": 8704,
      "stuk": 8705,
      "kilom": 8706,
      "heet": 8707,
      "##onnen": 8708,
      "##alignleft": 8709,
      "Noor": 8710,
      "##uper": 8711,
      "konink": 8712,
      "verspre": 8713,
      "##eerden": 8714,
      "geworden": 8715,
      "ontstond": 8716,
      "##mers": 8717,
      "##anders": 8718,
      "##akken": 8719,
      "Kle": 8720,
      "gemeenten": 8721,
      "China": 8722,
      "defin": 8723,
      "waarop": 8724,
      "wanneer": 8725,
      "vervangen": 8726,
      "von": 8727,
      "opgenomen": 8728,
      "##gar": 8729,
      "Peter": 8730,
      "beschouwd": 8731,
      "lok": 8732,
      "gec": 8733,
      "betre": 8734,
      "##iërs": 8735,
      "Haar": 8736,
      "maanden": 8737,
      "##oft": 8738,
      "##uter": 8739,
      "voorzien": 8740,
      "Turk": 8741,
      "##inet": 8742,
      "Robert": 8743,
      "internationale": 8744,
      "##tje": 8745,
      "politiek": 8746,
      "veroorz": 8747,
      "##eeld": 8748,
      "##ichten": 8749,
      "moderne": 8750,
      "##ctor": 8751,
      "oppervlak": 8752,
      "##voering": 8753,
      "syn": 8754,
      "##matig": 8755,
      "gebruiken": 8756,
      "##name": 8757,
      "##ora": 8758,
      "pra": 8759,
      "##verb": 8760,
      "slag": 8761,
      "##ote": 8762,
      "##ici": 8763,
      "Ag": 8764,
      "##kerk": 8765,
      "##spraak": 8766,
      "Comm": 8767,
      "bleek": 8768,
      "var": 8769,
      "##ka": 8770,
      "##iele": 8771,
      "vog": 8772,
      "vlak": 8773,
      "##ijds": 8774,
      "Groningen": 8775,
      "Min": 8776,
      "##stellingen": 8777,
      "1975": 8778,
      "elke": 8779,
      "Omdat": 8780,
      "##ash": 8781,
      "##eleid": 8782,
      "Air": 8783,
      "au": 8784,
      "##ack": 8785,
      "pol": 8786,
      "besl": 8787,
      "christelijke": 8788,
      "Brab": 8789,
      "##staat": 8790,
      "##iste": 8791,
      "##vankelijk": 8792,
      "gou": 8793,
      "Jean": 8794,
      "onafhankelijk": 8795,
      "bevindt": 8796,
      "personen": 8797,
      "##ities": 8798,
      "bestond": 8799,
      "##dienst": 8800,
      "prote": 8801,
      "Marc": 8802,
      "militaire": 8803,
      "1978": 8804,
      "##ple": 8805,
      "volgde": 8806,
      "cor": 8807,
      "bisschop": 8808,
      "Val": 8809,
      "tevens": 8810,
      "Spaanse": 8811,
      "Geb": 8812,
      "nab": 8813,
      "##nis": 8814,
      "##pass": 8815,
      "##adering": 8816,
      "gemeent": 8817,
      ".,": 8818,
      "Russisch": 8819,
      "temper": 8820,
      "namelijk": 8821,
      "Russische": 8822,
      "##han": 8823,
      "leidde": 8824,
      "afstand": 8825,
      "archite": 8826,
      "Ac": 8827,
      "Verder": 8828,
      "Antwerpen": 8829,
      "Dan": 8830,
      "##druk": 8831,
      "Pol": 8832,
      "##anning": 8833,
      "doordat": 8834,
      "##ringen": 8835,
      "##ipl": 8836,
      "1971": 8837,
      "##vat": 8838,
      "##ada": 8839,
      "Londen": 8840,
      "##ket": 8841,
      "##bed": 8842,
      "oudste": 8843,
      "##erland": 8844,
      "##kelijke": 8845,
      "##hof": 8846,
      "##bro": 8847,
      "IS": 8848,
      "York": 8849,
      "##17": 8850,
      "zogenaamde": 8851,
      "##kom": 8852,
      "vari": 8853,
      "##zee": 8854,
      "##otte": 8855,
      "talen": 8856,
      "bestaande": 8857,
      "1974": 8858,
      "##ute": 8859,
      "##inus": 8860,
      "hulp": 8861,
      "##rische": 8862,
      "ke": 8863,
      "handen": 8864,
      "1972": 8865,
      "hoogste": 8866,
      "gebaseerd": 8867,
      "1969": 8868,
      "1973": 8869,
      "Ven": 8870,
      "##uy": 8871,
      "\")": 8872,
      "richting": 8873,
      "##verd": 8874,
      "##pt": 8875,
      "prem": 8876,
      "Gel": 8877,
      "##adem": 8878,
      "David": 8879,
      "##..": 8880,
      "Gem": 8881,
      "uitv": 8882,
      "Ott": 8883,
      "##duid": 8884,
      "Nr": 8885,
      "Del": 8886,
      "Veel": 8887,
      "Brabant": 8888,
      "Nederlanden": 8889,
      "kunsten": 8890,
      "woorden": 8891,
      "planten": 8892,
      "vindt": 8893,
      "##merk": 8894,
      "##omin": 8895,
      "##xt": 8896,
      "##derd": 8897,
      "##ijkt": 8898,
      "Med": 8899,
      "atleet": 8900,
      "Oorlog": 8901,
      "##lei": 8902,
      "Zee": 8903,
      "kust": 8904,
      "##ome": 8905,
      "los": 8906,
      "##gew": 8907,
      "Universiteit": 8908,
      "vrijwel": 8909,
      "IV": 8910,
      "##oert": 8911,
      "##uv": 8912,
      "totaal": 8913,
      "##zing": 8914,
      "jonge": 8915,
      "Ke": 8916,
      "70": 8917,
      "col": 8918,
      "##ua": 8919,
      "Ten": 8920,
      "##rich": 8921,
      "1968": 8922,
      "vis": 8923,
      "##haven": 8924,
      "aller": 8925,
      "##igingen": 8926,
      "##ses": 8927,
      "Ol": 8928,
      "##nst": 8929,
      "mass": 8930,
      "gekozen": 8931,
      "oost": 8932,
      "broer": 8933,
      "##mot": 8934,
      "##199": 8935,
      "##sz": 8936,
      "##sters": 8937,
      "energie": 8938,
      "aanwezig": 8939,
      "waarna": 8940,
      "##ial": 8941,
      "##zil": 8942,
      "behand": 8943,
      "oog": 8944,
      "##boek": 8945,
      "sport": 8946,
      "##oph": 8947,
      "##ish": 8948,
      "station": 8949,
      "religie": 8950,
      "##Neder": 8951,
      "uitg": 8952,
      "Mac": 8953,
      "beter": 8954,
      "bepaald": 8955,
      "##pers": 8956,
      "##fab": 8957,
      "##gebracht": 8958,
      "##stein": 8959,
      "Museum": 8960,
      "##ove": 8961,
      "half": 8962,
      "Albert": 8963,
      "##schilder": 8964,
      "kilometer": 8965,
      "mann": 8966,
      "Reg": 8967,
      "actief": 8968,
      "schepen": 8969,
      "club": 8970,
      "daarvan": 8971,
      "parlement": 8972,
      "latere": 8973,
      "vallen": 8974,
      "##orde": 8975,
      "reed": 8976,
      "kolon": 8977,
      "Pas": 8978,
      "grotere": 8979,
      "Sur": 8980,
      "bes": 8981,
      "Nic": 8982,
      "lijst": 8983,
      "##richting": 8984,
      "##ja": 8985,
      "ervan": 8986,
      "duur": 8987,
      "##zak": 8988,
      "##rière": 8989,
      "Gal": 8990,
      "1967": 8991,
      "rad": 8992,
      "sm": 8993,
      "symb": 8994,
      "##aarde": 8995,
      "gevorm": 8996,
      "gedaan": 8997,
      "blijk": 8998,
      "Sim": 8999,
      "gebracht": 9000,
      "##heen": 9001,
      "##oit": 9002,
      "19e": 9003,
      "direct": 9004,
      "oosten": 9005,
      "##eeks": 9006,
      "##tenissen": 9007,
      "Bern": 9008,
      "televisie": 9009,
      "Sam": 9010,
      "genomen": 9011,
      "Hit": 9012,
      "Eind": 9013,
      "fab": 9014,
      "comb": 9015,
      "##mming": 9016,
      "##oorde": 9017,
      "Johannes": 9018,
      "Jul": 9019,
      "tal": 9020,
      "markt": 9021,
      "##achten": 9022,
      "##zetting": 9023,
      "##mans": 9024,
      "Andere": 9025,
      "##lem": 9026,
      "Stad": 9027,
      "dier": 9028,
      "1960": 9029,
      "westen": 9030,
      "val": 9031,
      "##uele": 9032,
      "##ola": 9033,
      "##hoek": 9034,
      "helft": 9035,
      "veil": 9036,
      "officiële": 9037,
      "Naast": 9038,
      "##lever": 9039,
      "##mene": 9040,
      "voedsel": 9041,
      "##ael": 9042,
      "aarde": 9043,
      "182": 9044,
      "##asteel": 9045,
      "Radio": 9046,
      "##vest": 9047,
      "wielrenner": 9048,
      "##ko": 9049,
      "opstand": 9050,
      "waarde": 9051,
      "onbe": 9052,
      "steun": 9053,
      "##prijs": 9054,
      "##cul": 9055,
      "nationale": 9056,
      "psych": 9057,
      "opdracht": 9058,
      "##elijkheid": 9059,
      "zichzelf": 9060,
      "geldt": 9061,
      "1944": 9062,
      "Jacob": 9063,
      "dro": 9064,
      "relatief": 9065,
      "##erend": 9066,
      "vertal": 9067,
      "##erden": 9068,
      "sche": 9069,
      "Freder": 9070,
      "part": 9071,
      "##orf": 9072,
      "financ": 9073,
      "##ande": 9074,
      "##iner": 9075,
      "dub": 9076,
      "krijgt": 9077,
      "##ical": 9078,
      "onderste": 9079,
      "verded": 9080,
      "Wh": 9081,
      "zaken": 9082,
      "Republiek": 9083,
      "voorzitter": 9084,
      "500": 9085,
      "optreden": 9086,
      "geest": 9087,
      "Jer": 9088,
      "William": 9089,
      "Mat": 9090,
      "bar": 9091,
      "##rus": 9092,
      "Open": 9093,
      "##30": 9094,
      "boeken": 9095,
      "Comp": 9096,
      "hetzelfde": 9097,
      "##keer": 9098,
      "Brazil": 9099,
      "##estival": 9100,
      "##ll": 9101,
      "maxim": 9102,
      "meth": 9103,
      "omgeving": 9104,
      "anders": 9105,
      "gebouw": 9106,
      "cultuur": 9107,
      "##denten": 9108,
      "spra": 9109,
      "hiervan": 9110,
      "stads": 9111,
      "Em": 9112,
      "##achtig": 9113,
      "##onk": 9114,
      "aanv": 9115,
      "##va": 9116,
      "bos": 9117,
      "##akter": 9118,
      "Alexander": 9119,
      "zangeres": 9120,
      "##met": 9121,
      "##oef": 9122,
      "person": 9123,
      "##spl": 9124,
      "Cla": 9125,
      "verkocht": 9126,
      "effect": 9127,
      "volgt": 9128,
      "##ieve": 9129,
      "##doende": 9130,
      "informatie": 9131,
      "twintig": 9132,
      "zin": 9133,
      "opl": 9134,
      "##onds": 9135,
      "schip": 9136,
      "##aatschappij": 9137,
      "##antwoord": 9138,
      "##elsel": 9139,
      "##aaf": 9140,
      "##beid": 9141,
      "##lymp": 9142,
      "Oud": 9143,
      "1966": 9144,
      "Wor": 9145,
      "zwem": 9146,
      "kent": 9147,
      "eveneens": 9148,
      "##okken": 9149,
      "valt": 9150,
      "##ros": 9151,
      "doc": 9152,
      "hoeveel": 9153,
      "##eeuwen": 9154,
      "##ün": 9155,
      "onderwijs": 9156,
      "klass": 9157,
      "verzet": 9158,
      "universiteit": 9159,
      "##aut": 9160,
      "merk": 9161,
      "definitie": 9162,
      "##zon": 9163,
      "zeggen": 9164,
      "speelt": 9165,
      "burgemeester": 9166,
      "verhalen": 9167,
      "Gre": 9168,
      "##emand": 9169,
      "kregen": 9170,
      "verkiezingen": 9171,
      "##oes": 9172,
      "graf": 9173,
      "hoewel": 9174,
      "idee": 9175,
      "autoc": 9176,
      "auteur": 9177,
      "mannen": 9178,
      "##produc": 9179,
      "organisatie": 9180,
      "##lam": 9181,
      "1940": 9182,
      "Bos": 9183,
      "##ilijk": 9184,
      "##reden": 9185,
      "gevallen": 9186,
      "##merken": 9187,
      "##ount": 9188,
      "kern": 9189,
      "wist": 9190,
      "auto": 9191,
      "##aakten": 9192,
      "daarop": 9193,
      "uitgebre": 9194,
      "prakt": 9195,
      "letter": 9196,
      "Mex": 9197,
      "##ranje": 9198,
      "##incip": 9199,
      "##kens": 9200,
      "plant": 9201,
      "##appen": 9202,
      "##ois": 9203,
      "project": 9204,
      "overl": 9205,
      "handel": 9206,
      "ed": 9207,
      "1965": 9208,
      "artik": 9209,
      "verschil": 9210,
      "Mus": 9211,
      "Slag": 9212,
      "aanget": 9213,
      "sh": 9214,
      "gebruikte": 9215,
      "leng": 9216,
      "##pad": 9217,
      "##schrift": 9218,
      "##scheiden": 9219,
      "##ooster": 9220,
      "website": 9221,
      "##kracht": 9222,
      "##album": 9223,
      "direc": 9224,
      "disc": 9225,
      "##gemene": 9226,
      "anderen": 9227,
      "##ias": 9228,
      "##omas": 9229,
      "##ré": 9230,
      "kruis": 9231,
      "##oh": 9232,
      "##toe": 9233,
      "groe": 9234,
      "My": 9235,
      "groepen": 9236,
      "ik": 9237,
      "Slo": 9238,
      "Nap": 9239,
      "vertegen": 9240,
      "vermeld": 9241,
      "verdw": 9242,
      "hoger": 9243,
      "##nemen": 9244,
      "##ots": 9245,
      "##ors": 9246,
      "verloren": 9247,
      "##tende": 9248,
      "tegenwoordig": 9249,
      "militair": 9250,
      "journ": 9251,
      "##rein": 9252,
      "Anton": 9253,
      "##akt": 9254,
      "##ibli": 9255,
      "##gl": 9256,
      "stro": 9257,
      "loopt": 9258,
      "betekenis": 9259,
      "##kening": 9260,
      "##odem": 9261,
      "Grieken": 9262,
      "partijen": 9263,
      "Rich": 9264,
      "1962": 9265,
      "Ca": 9266,
      "moeilijk": 9267,
      "##elk": 9268,
      "start": 9269,
      "vormt": 9270,
      "##erij": 9271,
      "overleed": 9272,
      "##sport": 9273,
      "geluid": 9274,
      "Ma": 9275,
      "stop": 9276,
      "##oeld": 9277,
      "imp": 9278,
      "##empl": 9279,
      "verbonden": 9280,
      "moesten": 9281,
      "##rif": 9282,
      "##blad": 9283,
      "ges": 9284,
      "lied": 9285,
      "##stra": 9286,
      "##istric": 9287,
      "zeker": 9288,
      "Hans": 9289,
      "Bla": 9290,
      "##ochten": 9291,
      "fus": 9292,
      "Mad": 9293,
      "afgele": 9294,
      "Gent": 9295,
      "Ren": 9296,
      "Limburg": 9297,
      "##uten": 9298,
      "Middel": 9299,
      "Rob": 9300,
      "##app": 9301,
      "Alb": 9302,
      "oorspronkelijke": 9303,
      "##iere": 9304,
      "##ski": 9305,
      "zetten": 9306,
      "vliegt": 9307,
      "want": 9308,
      "Dr": 9309,
      "##asting": 9310,
      "bereik": 9311,
      "Com": 9312,
      "economische": 9313,
      "Tw": 9314,
      "##gre": 9315,
      "Bi": 9316,
      "Mal": 9317,
      "##ift": 9318,
      "##80": 9319,
      "prins": 9320,
      "instru": 9321,
      "Hierdoor": 9322,
      "trein": 9323,
      "Rijn": 9324,
      "Ronde": 9325,
      "temperatuur": 9326,
      "Mor": 9327,
      "Arn": 9328,
      "Heilige": 9329,
      "1964": 9330,
      "Nieuwe": 9331,
      "autocoureur": 9332,
      "##nooi": 9333,
      "blijft": 9334,
      "Bou": 9335,
      "##mann": 9336,
      "##danks": 9337,
      "##40": 9338,
      "overheid": 9339,
      "##rib": 9340,
      "stelde": 9341,
      "Italiaanse": 9342,
      "ontwikkeld": 9343,
      "kab": 9344,
      "daarbij": 9345,
      "##rant": 9346,
      "stru": 9347,
      "##Het": 9348,
      "##cy": 9349,
      "##waard": 9350,
      "Pe": 9351,
      "##ierf": 9352,
      "Vlaams": 9353,
      "radio": 9354,
      "as": 9355,
      "mus": 9356,
      "publiek": 9357,
      "##gezet": 9358,
      "Serv": 9359,
      "prijs": 9360,
      "Boven": 9361,
      "##atal": 9362,
      "1963": 9363,
      "Jose": 9364,
      "inf": 9365,
      "##oepen": 9366,
      "Tegen": 9367,
      "##etten": 9368,
      "##igt": 9369,
      "stellen": 9370,
      "neemt": 9371,
      "##daag": 9372,
      "##club": 9373,
      "historische": 9374,
      "situ": 9375,
      "##che": 9376,
      "Fries": 9377,
      "##ductie": 9378,
      "##baan": 9379,
      "uiter": 9380,
      "##mond": 9381,
      "stijl": 9382,
      "pian": 9383,
      "nood": 9384,
      "gevestigd": 9385,
      "model": 9386,
      "Bre": 9387,
      "##oeden": 9388,
      "##nes": 9389,
      "exempl": 9390,
      "##oond": 9391,
      "jaarlijk": 9392,
      "##gelijke": 9393,
      "geslacht": 9394,
      "beweging": 9395,
      "begonnen": 9396,
      "krit": 9397,
      "kennis": 9398,
      "War": 9399,
      "##stitu": 9400,
      "##22": 9401,
      "werkte": 9402,
      "geleid": 9403,
      "extra": 9404,
      "##rok": 9405,
      "##ance": 9406,
      "reis": 9407,
      "20e": 9408,
      "post": 9409,
      "##uzik": 9410,
      "##the": 9411,
      "##antie": 9412,
      "heden": 9413,
      "##programma": 9414,
      "##vin": 9415,
      "##stuk": 9416,
      "35": 9417,
      "burger": 9418,
      "##yle": 9419,
      "##azz": 9420,
      "contact": 9421,
      "afkomstig": 9422,
      "imm": 9423,
      "volks": 9424,
      "orde": 9425,
      "uitgevoerd": 9426,
      "##gez": 9427,
      "Chine": 9428,
      "sprake": 9429,
      "##ament": 9430,
      "Gar": 9431,
      "eilanden": 9432,
      "##utt": 9433,
      "lengte": 9434,
      "##iders": 9435,
      "brie": 9436,
      "Johan": 9437,
      "##gesch": 9438,
      "##estuur": 9439,
      "##weed": 9440,
      "As": 9441,
      "kampioen": 9442,
      "mot": 9443,
      "##malig": 9444,
      "gevormd": 9445,
      "buurt": 9446,
      "Philip": 9447,
      "Azië": 9448,
      "##trek": 9449,
      "Charles": 9450,
      "colle": 9451,
      "jarige": 9452,
      "zen": 9453,
      "type": 9454,
      "Frederik": 9455,
      "Spaans": 9456,
      "leef": 9457,
      "##ning": 9458,
      "##rans": 9459,
      "rechter": 9460,
      "##kers": 9461,
      "Tro": 9462,
      "nabij": 9463,
      "besloot": 9464,
      "result": 9465,
      "gesproken": 9466,
      "Off": 9467,
      "##atische": 9468,
      "Beg": 9469,
      "dw": 9470,
      "geplaatst": 9471,
      "1950": 9472,
      "Bon": 9473,
      "##roffen": 9474,
      "##uut": 9475,
      "versl": 9476,
      ");": 9477,
      "##kop": 9478,
      "gehele": 9479,
      "##last": 9480,
      "##hout": 9481,
      "geloof": 9482,
      "Verd": 9483,
      "verantwoord": 9484,
      "Mc": 9485,
      "##film": 9486,
      "problemen": 9487,
      "gingen": 9488,
      "katholieke": 9489,
      "theorie": 9490,
      "##wijd": 9491,
      "##iment": 9492,
      "##Ge": 9493,
      "##meer": 9494,
      "viel": 9495,
      "##itz": 9496,
      "##aleis": 9497,
      "##iveau": 9498,
      "elektron": 9499,
      "1939": 9500,
      "%)": 9501,
      "##cc": 9502,
      "sterren": 9503,
      "ooit": 9504,
      "vak": 9505,
      "##teerde": 9506,
      "straf": 9507,
      "av": 9508,
      "pass": 9509,
      "karakter": 9510,
      "1946": 9511,
      "##ient": 9512,
      "Verenigd": 9513,
      "##uel": 9514,
      "zwarte": 9515,
      "##25": 9516,
      "##ba": 9517,
      ".\"": 9518,
      "Nadat": 9519,
      "##volger": 9520,
      "##za": 9521,
      "punten": 9522,
      "team": 9523,
      "eens": 9524,
      "##inger": 9525,
      "##rijke": 9526,
      "##oi": 9527,
      "erf": 9528,
      "haven": 9529,
      "vijft": 9530,
      "materiaal": 9531,
      "jur": 9532,
      "Oude": 9533,
      "##ivid": 9534,
      "##sd": 9535,
      "leiden": 9536,
      "##wijz": 9537,
      "##oorte": 9538,
      "Thomas": 9539,
      "##apt": 9540,
      "historisch": 9541,
      "##steen": 9542,
      "gedurende": 9543,
      "##ata": 9544,
      "Ham": 9545,
      "##raken": 9546,
      "##plicht": 9547,
      "tram": 9548,
      "##genoot": 9549,
      "Net": 9550,
      "lief": 9551,
      "betrokken": 9552,
      "##akkelijk": 9553,
      "eenvoud": 9554,
      "gespeeld": 9555,
      "1948": 9556,
      "kinder": 9557,
      "##esse": 9558,
      "verlie": 9559,
      "##vent": 9560,
      "1961": 9561,
      "welke": 9562,
      "afhankelijk": 9563,
      "gesloten": 9564,
      "Franc": 9565,
      "Zweed": 9566,
      "##gest": 9567,
      "##ront": 9568,
      "mach": 9569,
      "begint": 9570,
      "toneel": 9571,
      "gewoon": 9572,
      "##hoven": 9573,
      "##des": 9574,
      "oorspronkelijk": 9575,
      "wijze": 9576,
      "beroep": 9577,
      "berg": 9578,
      "geop": 9579,
      "verband": 9580,
      "Pat": 9581,
      "dyn": 9582,
      "##sn": 9583,
      "diep": 9584,
      "tradition": 9585,
      "##oodse": 9586,
      "Binnen": 9587,
      "git": 9588,
      "beschreven": 9589,
      "vor": 9590,
      "tegenstelling": 9591,
      "##ivis": 9592,
      "##centrum": 9593,
      "lokale": 9594,
      "##komt": 9595,
      "officieel": 9596,
      "ziekte": 9597,
      "vierde": 9598,
      "fre": 9599,
      "##role": 9600,
      "1958": 9601,
      "bedrijven": 9602,
      "Egypte": 9603,
      "##kings": 9604,
      "##aly": 9605,
      "Water": 9606,
      "James": 9607,
      "honder": 9608,
      "##jech": 9609,
      "##rukt": 9610,
      "Constant": 9611,
      "##ous": 9612,
      "reeks": 9613,
      "iemand": 9614,
      "lijkt": 9615,
      "landbouw": 9616,
      "benoemd": 9617,
      "Bas": 9618,
      "bezet": 9619,
      "Tussen": 9620,
      "bijzonder": 9621,
      "betrek": 9622,
      "activiteit": 9623,
      "wapen": 9624,
      "maand": 9625,
      "##oost": 9626,
      "vervoer": 9627,
      "##idae": 9628,
      "Wel": 9629,
      "##derheid": 9630,
      "##etjes": 9631,
      "(\"": 9632,
      "Raad": 9633,
      "Gra": 9634,
      "##middels": 9635,
      "##stalige": 9636,
      "Nationale": 9637,
      "zest": 9638,
      "Louis": 9639,
      "##appe": 9640,
      "1959": 9641,
      "Huis": 9642,
      "##gebruik": 9643,
      "##eller": 9644,
      "##eep": 9645,
      "##by": 9646,
      "Mag": 9647,
      "witte": 9648,
      "stof": 9649,
      "##aamd": 9650,
      "bot": 9651,
      "hard": 9652,
      "niets": 9653,
      "zomer": 9654,
      "##60": 9655,
      "Du": 9656,
      "##roege": 9657,
      "##leur": 9658,
      "##isseur": 9659,
      "del": 9660,
      "toepass": 9661,
      "Art": 9662,
      "Tra": 9663,
      "alles": 9664,
      "Tim": 9665,
      "aanzien": 9666,
      "##stem": 9667,
      "vraag": 9668,
      "literatuur": 9669,
      "##oster": 9670,
      "euro": 9671,
      "##eraad": 9672,
      "##ona": 9673,
      "zicht": 9674,
      "klim": 9675,
      "##aille": 9676,
      "vrede": 9677,
      "##icatie": 9678,
      "vlag": 9679,
      "beelden": 9680,
      "Kn": 9681,
      "##ikkel": 9682,
      "##roep": 9683,
      "Pool": 9684,
      "temp": 9685,
      "baan": 9686,
      "week": 9687,
      "bru": 9688,
      "##macht": 9689,
      "Vrij": 9690,
      "##itische": 9691,
      "sociale": 9692,
      "uitzonder": 9693,
      "kans": 9694,
      "##own": 9695,
      "onderscheid": 9696,
      "industrie": 9697,
      "##regen": 9698,
      "##rix": 9699,
      "standaard": 9700,
      "Bru": 9701,
      "##ardin": 9702,
      "langer": 9703,
      "aligncenteralignleft": 9704,
      "kind": 9705,
      "vriend": 9706,
      "##Nederlands": 9707,
      "vrije": 9708,
      "Fin": 9709,
      "Midden": 9710,
      "single": 9711,
      "##anus": 9712,
      "1956": 9713,
      "dert": 9714,
      "aanvankelijk": 9715,
      "##78": 9716,
      "regelmatig": 9717,
      "##gevoegd": 9718,
      "begrip": 9719,
      "##ianus": 9720,
      "##band": 9721,
      "Sommige": 9722,
      "--": 9723,
      "Wat": 9724,
      "sold": 9725,
      "##ultuur": 9726,
      "succesvol": 9727,
      "jeugd": 9728,
      "sterke": 9729,
      "chem": 9730,
      "breed": 9731,
      "##rem": 9732,
      "daardoor": 9733,
      "##tendeels": 9734,
      "juist": 9735,
      "Wanneer": 9736,
      "##leng": 9737,
      "brug": 9738,
      "Niet": 9739,
      "##ette": 9740,
      "##ura": 9741,
      "Nass": 9742,
      "##andid": 9743,
      "studie": 9744,
      "Richard": 9745,
      "grotendeels": 9746,
      "vaste": 9747,
      "##eland": 9748,
      "##ira": 9749,
      "leider": 9750,
      "45": 9751,
      "##ür": 9752,
      "##annen": 9753,
      "##chan": 9754,
      "individ": 9755,
      "hield": 9756,
      "##kampioen": 9757,
      "##houder": 9758,
      "strip": 9759,
      "geë": 9760,
      "##station": 9761,
      "##hang": 9762,
      "1949": 9763,
      "##achte": 9764,
      "##aalf": 9765,
      "CD": 9766,
      "##Zie": 9767,
      "##mocrat": 9768,
      "##stro": 9769,
      "doden": 9770,
      "##baarheid": 9771,
      "##werkt": 9772,
      "##ete": 9773,
      "Saint": 9774,
      "behoren": 9775,
      "ogen": 9776,
      "##roduc": 9777,
      "##alisme": 9778,
      "circa": 9779,
      "##ges": 9780,
      "weken": 9781,
      "wetenschap": 9782,
      "hart": 9783,
      "##ark": 9784,
      "reeds": 9785,
      "neder": 9786,
      "zullen": 9787,
      "1941": 9788,
      "##oï": 9789,
      "bezoek": 9790,
      "##70": 9791,
      "##ieu": 9792,
      "rechts": 9793,
      "Tsjech": 9794,
      "zag": 9795,
      "opv": 9796,
      "##school": 9797,
      "##raten": 9798,
      "islam": 9799,
      "##000": 9800,
      "##houding": 9801,
      "##ary": 9802,
      "##gend": 9803,
      "dr": 9804,
      "aangeduid": 9805,
      "Hun": 9806,
      "Meer": 9807,
      "kat": 9808,
      "Georg": 9809,
      "Ju": 9810,
      "wit": 9811,
      "stroom": 9812,
      "##aalt": 9813,
      "Lux": 9814,
      "Sen": 9815,
      "World": 9816,
      "1947": 9817,
      "roman": 9818,
      "##rucht": 9819,
      "##ografische": 9820,
      "ontm": 9821,
      "midd": 9822,
      "loc": 9823,
      "1957": 9824,
      "ep": 9825,
      "##lin": 9826,
      "oppervlakte": 9827,
      "1942": 9828,
      "pap": 9829,
      "##ukken": 9830,
      "##nemers": 9831,
      "Pier": 9832,
      "##anken": 9833,
      "nacht": 9834,
      "tegenover": 9835,
      "blijkt": 9836,
      "##bur": 9837,
      "wedstrijd": 9838,
      "##ement": 9839,
      "adv": 9840,
      "filosof": 9841,
      "##ney": 9842,
      "prie": 9843,
      "##88": 9844,
      "confl": 9845,
      "##kiezingen": 9846,
      "verbet": 9847,
      "##tische": 9848,
      "##66": 9849,
      "Rec": 9850,
      "Bijbel": 9851,
      "##ware": 9852,
      "bezit": 9853,
      "Ath": 9854,
      "##helm": 9855,
      "##RO": 9856,
      "dik": 9857,
      "overwinn": 9858,
      "Hal": 9859,
      "##leraar": 9860,
      "Chinese": 9861,
      "log": 9862,
      "##stron": 9863,
      "##nemer": 9864,
      "princip": 9865,
      "Atl": 9866,
      "##igden": 9867,
      "doet": 9868,
      "##23": 9869,
      "Bul": 9870,
      "actie": 9871,
      "Award": 9872,
      "##ersp": 9873,
      "olie": 9874,
      "##brug": 9875,
      "zware": 9876,
      "Sy": 9877,
      "##volging": 9878,
      "ontstaat": 9879,
      "voert": 9880,
      "raad": 9881,
      "##anaal": 9882,
      "Sant": 9883,
      "voeren": 9884,
      "##gemaakt": 9885,
      "vre": 9886,
      "bedoeld": 9887,
      "##ano": 9888,
      "##iti": 9889,
      "studenten": 9890,
      "By": 9891,
      "ag": 9892,
      "##ago": 9893,
      "bouwen": 9894,
      "Oranje": 9895,
      "##ustr": 9896,
      "##plant": 9897,
      "oorsprong": 9898,
      "##staande": 9899,
      "##ages": 9900,
      "1954": 9901,
      "zelfstand": 9902,
      "##24": 9903,
      "diens": 9904,
      "##vd": 9905,
      "##spro": 9906,
      "Ker": 9907,
      "VS": 9908,
      "Gener": 9909,
      "wegens": 9910,
      "onderscheiden": 9911,
      "Grieks": 9912,
      "cm": 9913,
      "##zi": 9914,
      "##zel": 9915,
      "elementen": 9916,
      "opz": 9917,
      "finale": 9918,
      "Palest": 9919,
      "toegepast": 9920,
      "1953": 9921,
      "speciale": 9922,
      "##zuur": 9923,
      "##ooms": 9924,
      "fiet": 9925,
      "##ampen": 9926,
      "status": 9927,
      "##osk": 9928,
      "1955": 9929,
      "eenheid": 9930,
      "samenwerking": 9931,
      "pog": 9932,
      "Olymp": 9933,
      "##streeks": 9934,
      "populair": 9935,
      "##wis": 9936,
      "##iënt": 9937,
      "Surin": 9938,
      "koninkrijk": 9939,
      "regen": 9940,
      "Maas": 9941,
      "klassieke": 9942,
      "verkeer": 9943,
      "##rechten": 9944,
      "##isen": 9945,
      "##aff": 9946,
      "##ony": 9947,
      "##gren": 9948,
      "##clusief": 9949,
      "wind": 9950,
      "geboorte": 9951,
      "##wassen": 9952,
      "##BN": 9953,
      "Hoog": 9954,
      "rode": 9955,
      "kunstschilder": 9956,
      "edel": 9957,
      "Pruis": 9958,
      "##iem": 9959,
      "##gebieden": 9960,
      "opvolger": 9961,
      "premier": 9962,
      "Filips": 9963,
      "Ha": 9964,
      "##iddelde": 9965,
      "##asc": 9966,
      "koningin": 9967,
      "steen": 9968,
      "Ken": 9969,
      "zit": 9970,
      "1943": 9971,
      "Di": 9972,
      "gede": 9973,
      "snelheid": 9974,
      "museum": 9975,
      "Berlijn": 9976,
      "##iplom": 9977,
      "combinatie": 9978,
      "Ru": 9979,
      "Centraal": 9980,
      "kleuren": 9981,
      "negent": 9982,
      "sol": 9983,
      "maat": 9984,
      "thuis": 9985,
      "gedeelte": 9986,
      "##NA": 9987,
      "Bor": 9988,
      "etappe": 9989,
      "verspreid": 9990,
      "rug": 9991,
      "##ants": 9992,
      "##ense": 9993,
      "specif": 9994,
      "1938": 9995,
      "levens": 9996,
      "Sl": 9997,
      "##way": 9998,
      "bedre": 9999,
      "hor": 10000,
      "atlet": 10001,
      "wetenschappelijke": 10002,
      "##sproken": 10003,
      "75": 10004,
      "beleg": 10005,
      "wint": 10006,
      "uitbre": 10007,
      "warm": 10008,
      "##huizen": 10009,
      "Wilhelm": 10010,
      "##zus": 10011,
      "aandacht": 10012,
      "150": 10013,
      "Samen": 10014,
      "vuur": 10015,
      "Orde": 10016,
      "For": 10017,
      "verdeeld": 10018,
      "zevent": 10019,
      "##laag": 10020,
      "ontwikkelde": 10021,
      "##ager": 10022,
      "##telling": 10023,
      "gereg": 10024,
      "1952": 10025,
      "##jarige": 10026,
      "##ressie": 10027,
      "Joseph": 10028,
      "gevol": 10029,
      "Nij": 10030,
      "Mont": 10031,
      "##uge": 10032,
      "muzik": 10033,
      "hof": 10034,
      "1930": 10035,
      "##chen": 10036,
      "##comp": 10037,
      "##stemen": 10038,
      "Partij": 10039,
      "omvat": 10040,
      "mat": 10041,
      "##osf": 10042,
      "dergelijke": 10043,
      "hout": 10044,
      "##27": 10045,
      "natuurlijke": 10046,
      "Luxem": 10047,
      "##dij": 10048,
      "nat": 10049,
      "bereikt": 10050,
      "bus": 10051,
      "##ieën": 10052,
      "telt": 10053,
      "##ries": 10054,
      "aart": 10055,
      "##vereniging": 10056,
      "zitten": 10057,
      "fig": 10058,
      "##been": 10059,
      "uitgebracht": 10060,
      "kom": 10061,
      "##standigheden": 10062,
      "##lig": 10063,
      "Michael": 10064,
      "##zaak": 10065,
      "##istisch": 10066,
      "plat": 10067,
      "##riften": 10068,
      "meerderheid": 10069,
      "##beur": 10070,
      "##chtoff": 10071,
      "##stemming": 10072,
      "...": 10073,
      "mijn": 10074,
      "mond": 10075,
      "##rig": 10076,
      "Keizer": 10077,
      "##gebouw": 10078,
      "mogen": 10079,
      "Histor": 10080,
      "volt": 10081,
      "Sport": 10082,
      "Rond": 10083,
      "politie": 10084,
      "Zeel": 10085,
      "Mo": 10086,
      "Bal": 10087,
      "1918": 10088,
      "rechten": 10089,
      "mm": 10090,
      "echte": 10091,
      "zuur": 10092,
      "##ulden": 10093,
      "Cong": 10094,
      "##parte": 10095,
      "journalist": 10096,
      "##arth": 10097,
      "mic": 10098,
      "geg": 10099,
      "bevinden": 10100,
      "deb": 10101,
      "Daarna": 10102,
      "##heb": 10103,
      "##komsten": 10104,
      "##indingen": 10105,
      "schrijf": 10106,
      "nad": 10107,
      "Enkele": 10108,
      "Ont": 10109,
      "verschijn": 10110,
      "vloe": 10111,
      "##eiken": 10112,
      "tel": 10113,
      "erv": 10114,
      "Maur": 10115,
      "gewonnen": 10116,
      "33": 10117,
      "voer": 10118,
      "Brug": 10119,
      "datum": 10120,
      "Carl": 10121,
      "present": 10122,
      "##orme": 10123,
      "##oelen": 10124,
      "##mel": 10125,
      "Jos": 10126,
      "##etje": 10127,
      "gedrag": 10128,
      "Zwe": 10129,
      "lopen": 10130,
      "##tip": 10131,
      "gesteld": 10132,
      "eeuwen": 10133,
      "zetels": 10134,
      "vroege": 10135,
      "Nassau": 10136,
      "bal": 10137,
      "Waar": 10138,
      "Gl": 10139,
      "zand": 10140,
      "##agne": 10141,
      "kabinet": 10142,
      "Ser": 10143,
      "situatie": 10144,
      "##ques": 10145,
      "##lang": 10146,
      "##ta": 10147,
      "bodem": 10148,
      "kleinere": 10149,
      "##loos": 10150,
      "##oeder": 10151,
      "##agina": 10152,
      "schrijven": 10153,
      "##heim": 10154,
      "##udeerde": 10155,
      "ervoor": 10156,
      "Park": 10157,
      "##SA": 10158,
      "##ford": 10159,
      "acc": 10160,
      "Wet": 10161,
      "##hr": 10162,
      "##plaatsen": 10163,
      "##28": 10164,
      "##alistische": 10165,
      "beschrij": 10166,
      "geopend": 10167,
      "trok": 10168,
      "Ba": 10169,
      "gemeenteraad": 10170,
      "artikel": 10171,
      "1951": 10172,
      "##ör": 10173,
      "Berg": 10174,
      "##othe": 10175,
      "blad": 10176,
      "im": 10177,
      "Single": 10178,
      "neg": 10179,
      "##elaar": 10180,
      "ei": 10181,
      "gas": 10182,
      "onge": 10183,
      "##osaurus": 10184,
      "##iro": 10185,
      "All": 10186,
      "bereiken": 10187,
      "##inst": 10188,
      "')": 10189,
      "IJs": 10190,
      "architect": 10191,
      "1933": 10192,
      "##schrijver": 10193,
      "contin": 10194,
      "Conc": 10195,
      "Heer": 10196,
      "Polen": 10197,
      "georganis": 10198,
      "staart": 10199,
      "gang": 10200,
      "Alf": 10201,
      "gevaar": 10202,
      "1936": 10203,
      "relatie": 10204,
      "Luxemburg": 10205,
      "famil": 10206,
      "##ipp": 10207,
      "1920": 10208,
      "respe": 10209,
      "##eringen": 10210,
      "Japanse": 10211,
      "Lib": 10212,
      "ernst": 10213,
      "nauw": 10214,
      "##iana": 10215,
      "algemene": 10216,
      "##ummer": 10217,
      "verniet": 10218,
      "kasteel": 10219,
      "toek": 10220,
      "##raagt": 10221,
      "##inkel": 10222,
      "##ictor": 10223,
      "Zeeland": 10224,
      "bekendste": 10225,
      "genaamd": 10226,
      "##ildpad": 10227,
      "goud": 10228,
      "Tha": 10229,
      "##oegen": 10230,
      "Duitsers": 10231,
      "mate": 10232,
      "##uurd": 10233,
      "kaart": 10234,
      "##igit": 10235,
      "computer": 10236,
      "stemmen": 10237,
      "raakte": 10238,
      "toren": 10239,
      "vroeger": 10240,
      "veroorzaakt": 10241,
      "Jezus": 10242,
      "gegevens": 10243,
      "##oute": 10244,
      "Soci": 10245,
      "##ór": 10246,
      "##verne": 10247,
      "troon": 10248,
      "Aut": 10249,
      "##oederen": 10250,
      "Rh": 10251,
      "##gever": 10252,
      "##seling": 10253,
      "##aarten": 10254,
      "##gelegen": 10255,
      "houdt": 10256,
      "object": 10257,
      "Cast": 10258,
      "##eet": 10259,
      "You": 10260,
      "besloten": 10261,
      "fusie": 10262,
      "verloor": 10263,
      "##ruim": 10264,
      "Cap": 10265,
      "nummers": 10266,
      "Martin": 10267,
      "Jon": 10268,
      "##schreven": 10269,
      "totale": 10270,
      "verschenen": 10271,
      "inst": 10272,
      "##90": 10273,
      "1937": 10274,
      "##erkte": 10275,
      "cap": 10276,
      "##bus": 10277,
      "##aagd": 10278,
      "##raan": 10279,
      "##ble": 10280,
      "##21": 10281,
      "##igens": 10282,
      "prec": 10283,
      "##beek": 10284,
      "##198": 10285,
      "contra": 10286,
      "##wijze": 10287,
      "##systeem": 10288,
      "hogere": 10289,
      "##gegeven": 10290,
      "##etische": 10291,
      "##zijds": 10292,
      "##teg": 10293,
      "complex": 10294,
      "##weer": 10295,
      "Bron": 10296,
      "##kest": 10297,
      "spreekt": 10298,
      "##bergen": 10299,
      "twaalf": 10300,
      "##ike": 10301,
      "Tom": 10302,
      "kool": 10303,
      "##lim": 10304,
      "##entoon": 10305,
      "##hoofd": 10306,
      "films": 10307,
      "##omie": 10308,
      "super": 10309,
      "##dering": 10310,
      "##ologisch": 10311,
      "##ror": 10312,
      "stierf": 10313,
      "##dan": 10314,
      "##olk": 10315,
      "vertaling": 10316,
      "niveau": 10317,
      "rood": 10318,
      "miljard": 10319,
      "Mark": 10320,
      "diale": 10321,
      "##inses": 10322,
      "geproduc": 10323,
      "jaartelling": 10324,
      "Univers": 10325,
      "##uch": 10326,
      "##ake": 10327,
      "exemplaren": 10328,
      "##heven": 10329,
      "##logen": 10330,
      "##achtige": 10331,
      "##bar": 10332,
      "00": 10333,
      "##enties": 10334,
      "##iaan": 10335,
      "terecht": 10336,
      "##iezen": 10337,
      "##vle": 10338,
      "zond": 10339,
      "India": 10340,
      "zat": 10341,
      "##aling": 10342,
[...]
